0000000
0000000
0060000
0200000
3A00000
3DE0000
0000000
0000000
03C0000
02A0000
0020000
3D40000
3F00000
37C0000
3D40000
0000000
0140000
0000000
0360000
01C0000
01C0000
0000000
3F60000
3DA0000
0000000
0000000
0000000
0000000
0000000
0000000
0000000
0000000
3EE0000
0000000
0000000
0040000
0000000
0440000
0000000
3F80000
3A40000
3E00000
3E20000
3980000
3C20000
3FC0000
0000000
0100000
0480000
0640000
02C0000
03E0000
0000000
0000000
0000000
0000000
0000000
0000000
3F60000
0000000
00C0000
0560000
0000000
0000000
02E0000
0000000
0000000
0000000
3FC0000
0000000
0020000
3EC0000
0000000
0000000
0000000
0000000
0020000
0000000
0000000
0100000
04E0000
0000000
0000000
0000000
0000000
0000000
0000000
3FA0000
00A0000
0060000
0060000
0120000
0000000
0000000
0000000
0000000
0000000
0000000
0000000
0060000
0000000
3E00000
0000000
3EE0000
0000000
0160000
0000000
04E0000
0240000
0200000
0000000
0000000
0000000
0000000
0000000
0000000
0000000
0120000
0020000
0000000
0000000
0000000
0040000
01A0000
0000000
3F20000
3E80000
0000000
0000000
0000000
0000000
3B80000
0000000
0000000
00E0000
0000000
0000000
0160000
0380000
0000000
0000000
0000000
3BA0000
02C0000
0000000
00C0000
0000000
3C40000
0000000
3940000
0000000
0000000
0000000
0000000
3E40000
0000000
3EC0000
02E0000
3FE0000
3F20000
0000000
0000000
0040000
0000000
0000000
0100000
0020000
0000000
0000000
0000000
3FE0000
0000000
0000000
3C20000
3F60000
3E80000
0000000
0000000
0000000
3F20000
3F80000
3FC0000
3A40000
0000000
0000000
0000000
0000000
3F20000
3FC0000
0000000
0000000
0000000
0020000
0180000
0000000
0000000
0000000
0000000
3FE0000
0000000
3FA0000
38E0000
0000000
0000000
0000000
0000000
3FC0000
0000000
0000000
0000000
39E0000
0000000
0020000
0140000
0040000
0000000
0000000
3FC0000
0000000
3E20000
0000000
01E0000
0080000
3F60000
0000000
3FC0000
0000000
0000000
0000000
3E60000
0000000
3BA0000
0000000
00A0000
0000000
0000000
0260000
0000000
0000000
0020000
0000000
0040000
0660000
0140000
0000000
3F40000
3FC0000
3EE0000
0000000
0020000
0000000
3F60000
0000000
0000000
0000000
0000000
0000000
3EE0000
0000000
3EC0000
0080000
0000000
0000000
0000000
0000000
0000000
3F00000
0040000
0000000
0000000
0100000
0000000
3E00000
0000000
0000000
3B20000
3FC0000
0000000
0000000
0000000
0000000
0000000
0000000
0000000
0000000
3EC0000
3EA0000
3DA0000
0000000
0120000
0000000
02E0000
0060000
0000000
3FA0000
0000000
3F00000
3FE0000
0140000
0000000
0000000
0000000
0000000
3F80000
0000000
3D80000
0020000
0080000
0000000
0000000
0000000
0120000
0020000
3FA0000
0000000
3D00000
0000000
0000000
0000000
0000000
0000000
3D80000
0020000
0000000
0000000
3FE0000
0000000
3D80000
3920000
0000000
0000000
0000000
3FA0000
3F40000
3F20000
0000000
0000000
0000000
0000000
0000000
0000000
0000000
0000000
3D20000
3DC0000
0060000
0000000
3FE0000
0000000
3B40000
0000000
3FC0000
0000000
0000000
0700000
0120000
0000000
0000000
0080000
0000000
3F00000
3FC0000
39A0000
0000000
0000000
0000000
00A0000
0000000
3E20000
3F60000
0000000
0000000
0000000
0000000
0000000
0000000
0000000
0020000
3F40000
0000000
0000000
3FC0000
0000000
01C0000
39A0000
0000000
01C0000
0000000
3FE0000
0000000
3C40000
0000000
0000000
0000000
0040000
0000000
3E00000
3F20000
3D00000
3580000
34A0000
3FE0000
3EC0000
3CC0000
0000000
0020000
3F00000
0000000
0000000
0000000
3FC0000
0000000
3700000
3E20000
0000000
0000000
3FC0000
0000000
0000000
3F20000
0000000
0000000
0000000
3F60000
3A40000
0000000
3EC0000
3F00000
3F60000
0000000
0000000
0000000
3FE0000
0000000
3F80000
0000000
0000000
00E0000
0000000
0180000
0000000
3EE0000
0000000
0000000
0000000
0000000
0000000
0000000
0000000
0000000
0000000
0000000
0000000
0000000
3FA0000
3F40000
3860000
0000000
0000000
0000000
0000000
0080000
3F20000
0000000
01C0000
01C0000
0000000
0200000
0000000
0060000
0000000
3F60000
0000000
0000000
0000000
0000000
0000000
0000000
0000000
0000000
0000000
0000000
3F00000
3760000
0000000
03A0000
3FE0000
0000000
0000000
0060000
0000000
3FE0000
0140000
0000000
0000000
0000000
00E0000
0000000
3FA0000
0000000
0000000
0000000
3FE0000
0000000
3700000
0000000
0000000
0020000
0000000
0000000
3FA0000
3BC0000
0000000
04C0000
0000000
0000000
0000000
0000000
3FE0000
0000000
0000000
0000000
0000000
0000000
0000000
3EE0000
3F60000
0000000
0000000
0000000
3E60000
0000000
3D40000
0040000
0040000
0020000
0000000
0000000
0000000
0000000
02C0000
0160000
3F60000
0000000
0000000
0000000
0000000
0000000
0000000
0000000
0000000
0000000
0000000
0000000
3D20000
0000000
0000000
0000000
3E60000
0000000
3FE0000
0020000
0000000
0140000
0000000
0000000
0000000
0120000
00C0000
0000000
0000000
0300000
0040000
0080000
0000000
01E0000
0360000
0080000
0100000
0000000
0000000
0000000
0000000
0000000
0000000
0000000
3FC0000
0000000
0000000
0060000
0000000
01A0000
0000000
3FE0000
0000000
0120000
0000000
0000000
0780000
0200000
00A0000
0360000
0140000
0100000
0000000
0020000
0040000
00C0000
0040000
0000000
0000000
0000000
04E0000
00E0000
3F60000
3FE0000
0000000
00C0000
0000000
0000000
0020000
0000000
0000000
00E0000
05A0000
00C0000
0000000
02A0000
0120000
04E0000
00A0000
0000000
3F60000
0000000
0000000
0000000
00E0000
0020000
0000000
0000000
0380000
0060000
3EA0000
0000000
3FE0000
0000000
0000000
0000000
0160000
0000000
3FE0000
02C0000
01A0000
0020000
0420000
0000000
0000000
0000000
3FE0000
3F40000
3EC0000
3E40000
3BE0000
3FE0000
3FA0000
3FE0000
0000000
0000000
0200000
0100000
0000000
0040000
01E0000
0000000
0020000
0000000
0000000
0000000
3FE0000
0000000
0540000
0120000
0080000
0040000
0000000
0000000
0000000
3FA0000
0000000
0000000
3B20000
3FA0000
0000000
0000000
0000000
0000000
0000000
0380000
0000000
00C0000
0280000
0040000
00E0000
0040000
0000000
0000000
3FC0000
0380000
0000000
0000000
0080000
0600000
0300000
01C0000
0060000
0000000
0000000
3FE0000
3EE0000
0000000
0000000
3FE0000
0360000
0000000
0300000
0080000
0020000
0000000
0020000
0000000
0020000
00C0000
0000000
3FE0000
0100000
06A0000
0000000
03A0000
0000000
0120000
05A0000
0100000
0900000
0000000
0040000
0020000
0000000
0000000
0000000
0000000
0000000
0000000
0000000
00C0000
3F00000
0040000
0000000
0000000
3DE0000
0000000
3F60000
3F60000
0000000
0400000
3DA0000
3FC0000
0000000
0020000
0180000
00C0000
0000000
3C00000
0000000
0000000
3C80000
3FA0000
0000000
3D80000
3E40000
3C80000
0000000
0000000
3EE0000
0000000
0000000
3FA0000
3FE0000
3ECFFFE
0000004
3DE0000
008FFE6
3F6FFFC
0000002
3FE0000
3D00008
0040000
0020044
01E0000
020FFF6
000FFE0
004FFEE
0320000
3A80000
3EE0062
3A20004
39E0000
0000006
0020000
0000000
0000000
0000000
0000000
0000000
0000000
0000000
3B80000
3FA0000
000FFA4
3F60026
3FCFFFC
3F40000
00E0002
0200000
0060054
3E6FFF6
3E0FFDE
3FAFFF4
000FFFA
000FFFA
05C0000
04E0000
3F80000
3E60000
0040000
3A20000
000FFF8
0000000
0000000
0000000
3F20000
0000000
0000000
000FFE2
0000000
0000000
3A60004
3B00006
3EE0000
3D20000
0100000
3D40000
3F4FFF6
0000000
3C00000
000003C
3E00000
0000000
3AC0000
000FFFE
0020000
3820000
3E60000
3E40000
0000000
3AEFFCA
0000000
0000000
0000000
0000000
0000000
0000000
000FFF6
3FE0000
0000000
3BA0000
3A4FFFE
3960004
3BE0000
3DE0000
000FFF0
000FFFE
0000000
3C6001A
0000000
00A0000
3F00000
3E40000
38A0000
3D00000
3B00000
3C00004
3780000
3960000
0000000
0000000
0000000
3FE0000
0000000
000FFCC
0000000
0000000
0000000
3940000
3C60000
3E40000
35A0000
3DC0006
0000000
0000000
3CC0000
3F60012
0060036
3FC0008
3C60000
3D80000
3BC0000
0000000
3EAFFE2
3FCFFFE
0000000
3A20000
000FFD0
3EA0000
3F60000
0000000
000FFF0
0000000
0000000
3F60000
0000000
3DAFFDC
0000000
0000000
3BA0002
3F60028
0040000
0040000
0000000
0000000
000001E
000001A
0000000
3EC0000
3F6FFEA
3CE0000
0000000
000FFFE
000FFF8
3CC0000
3D80000
394FFB6
3FC0000
0000000
0000000
000FFF8
0140000
0000012
0020000
0640000
0140000
3F60000
0000000
3E20000
0000000
0000006
0000000
3E80052
3D60000
3C40000
3F20000
3D8FFF2
3D6FFD2
01E0000
0560000
020FFFE
3FAFFDE
3F20000
3C6FFFC
398FFF4
3720000
000FFEA
0000000
000FFFC
0000000
000001A
000000C
0140000
0000000
0000000
0000000
006FFD0
000FFFC
0020000
3CAFFFE
3F60040
3FA0000
3E0FFD0
3EEFFEE
3FEFFFA
3ECFFAC
3FEFFBC
0680006
0000000
3FA0000
3EEFFF0
3B6FFF4
32C0000
0000000
0000000
0000000
0000000
0000000
000000E
0020000
00A0000
006FFFC
3D8FFC8
3F00000
3FEFFF6
3FC0000
00C0000
3F60000
3FC0024
0000022
0000000
3880000
3DAFFB8
3C6FFBA
000FFF4
0160000
0020000
000FFE6
000FFDA
3D8FFFE
0000000
0000002
0000000
0000000
3D6FFCA
0000000
0100000
0060000
04C0000
0080000
3C80000
3FCFFF0
0000000
0000000
3EA0000
3980000
3F2FFFA
3EC0058
3D2001A
3E6000E
3FE0000
3BC0004
3FAFFFC
0060000
008005A
02A0002
0000000
3F60000
3CC0000
00C0002
0000000
0000000
0000000
3EE0000
0000000
3F80000
01E0000
022FFE8
0160030
00AFFEA
0000000
002FFC4
3C80000
3FAFFE4
000FFF6
37A0006
002001A
3CC0016
0060008
3F80016
0000024
0060042
0000010
000FFFE
3EE0000
3E20000
3CC0000
000000A
002FFF6
000FFF2
0000000
3CE0000
0000000
3EE0010
0560000
0400000
00E0008
0000000
006FFE8
3FA0000
3FEFFFC
000FFE6
000FFEA
0000000
00A0008
0000002
0020000
0000034
0220000
0000000
0000070
0120000
3F40000
3D20000
0000012
05AFFFC
0000000
00A0000
3FC0000
3F40000
0000004
3FA0022
3F60024
0160040
0180022
0000000
3DA0000
3F20000
3F6FFFA
0340000
000FFB8
004FF86
00E0000
000FFEE
006FFCE
0440000
0120000
000FFF4
0000000
0000000
3F20000
0000000
0000002
00A0000
0000000
002FFE0
3D8FFF2
000FFDE
000000C
0080000
3EC0000
01A005A
000001E
0000000
3FE0000
000FFF4
3EA0004
0000000
0000000
000FFDA
022FF9C
000FFD0
3F80000
0000000
0000000
0100000
3F40000
0000000
3E8FFE2
3FA0000
0000020
0000000
000FFBE
0040000
390FF62
0000000
00A0006
3FC002C
3FC0006
076005C
0420008
3FA0000
03A0000
026FFF2
000002E
0000000
3F8FFD2
000FFF4
000FFA6
0220000
3FCFFC8
01C0000
0000066
00A002E
004000C
000000A
3F0001C
3F20000
0000000
000FFF4
3FAFFE0
000FF96
3C2FF9E
000FFC6
0000000
3E40038
3FA0012
0080038
0000000
0040000
3FE0000
00AFFD2
0000000
012FFF6
0560000
0000000
000FF8A
0000002
000FFF4
0080000
00EFFFE
00A0022
000002E
3FC0018
3F20010
3BA0000
016FFF2
000FFFC
3FAFFDC
0000004
3A2FFEC
3A6FFF8
0000000
3F60000
000005A
0040000
3FC0000
00C0000
0000000
0020000
0000000
0080000
01E0000
0420000
020FFB6
0020000
05CFFE0
0140000
3F2FFF2
3FC0000
0000016
0000064
3EE0012
3F20000
01CFFF0
000FFC0
000FFF6
00C0000
000FFD4
3B8000E
0000000
3EE0068
3F80054
02A0000
3FE0020
0040014
3FC0012
00A0006
0060010
3FA0000
0000000
004002A
00AFFCE
002FFFE
0160000
0020000
0000000
01C0000
0000070
0080000
0000000
000FFFE
000FFF0
0000000
3F6FFFE
0320002
3A2FFD2
3E40000
000000C
3F4003E
0060052
0000018
0000010
0000000
3FAFFF2
0000002
0000000
024FFB0
0000000
3E40000
3F0FFAA
3FA0000
0000000
0120004
0000000
0140000
0000000
000FFFA
0000000
00C0000
0080000
0040000
3DC005E
000000C
0000034
3E4000A
3EA0000
3FC0000
01C0000
0000000
07E0000
008FFDA
3F6FFFE
3F2FFEA
3FA0000
000FFF0
010FFFC
0000000
3FE0000
0000000
020FFF2
06C0000
0180000
3FEFFF8
3FA000C
0000000
3FA0000
000001A
0000000
0000000
3FC0002
0000008
3FE001E
3FE005A
0000006
0000000
0100000
0100000
0000000
0080000
3F8FFB2
3F6FFFE
3FE0000
3F8FFFC
0000000
0000002
0000000
0000000
000000E
0380000
00EFFEE
3FAFFD2
3FE0000
004FFF8
0000000
000000C
0000000
000FFEC
062FFEA
0020000
0000006
0000000
3FC0000
02E0000
0220000
3DA0000
0420000
0280000
3F2FFB8
3F4FFF6
3E40000
0000000
0000000
0140000
0460006
0520008
0000000
0140006
004000C
3F0FFE6
0000002
0000014
0020000
0040000
002FFC2
01A0000
000FFD6
000FFE8
00A0000
0060000
0000000
0080010
3FE0000
0040000
0060000
0000000
3F4FFF0
3DCFFF4
0000000
0000000
000FFE2
0000000
0220000
0000000
0600000
0020000
00C0004
3FAFFF6
0000000
0140000
000FFFE
0380002
000FFDA
00E0000
3A0FFFA
0000000
0280000
0580000
0000000
3FE0000
0000000
01C0008
3FC0002
3FC0000
3FC0000
0000000
3F80000
3FE0000
0000000
00E0000
00C0000
0000000
0060000
0040000
03A0026
0260000
004002C
3E00000
3F00000
000FFE6
0080000
000FF9C
0000000
0020000
0020000
0000000
02C0002
0000000
02E0052
0100006
3FE0000
0000000
3FA0000
3EC0000
3FC0000
0000000
0460000
00E0000
0000000
0000000
000FFFE
000FFFA
0160022
0140000
0000036
0060076
3FC0000
000FFD4
0000000
3F20000
3D0FFF2
004FFFA
3CCFFF8
0000000
3F6000A
0000000
00A0002
02A0000
0000000
0140002
01EFFEC
000FFFE
3AA0000
0000000
000FFFC
0000000
0000000
0020000
000FFCE
000FFF8
3FE0000
0180000
0020002
3FC0072
0000006
3D40000
0060000
014FFE4
0000000
070FFF0
0020000
0020018
3F40000
0000000
3C40000
3BE0000
0000000
0020000
0000000
3F40000
3FC0000
3FE0000
3F4FFEE
0000000
0000012
3F80000
0060000
0000000
3EE0006
3C20024
0000020
3F60000
3F80040
3FC0000
0020000
000FF9A
0020010
0260000
04C0000
0060000
3F80000
0020002
0040000
3FAFFF8
008FF96
0040000
0080000
0120000
0000000
0000000
000FFFE
0000000
0080000
0380000
0080000
0020000
0000000
3EC0000
3AC0006
03E006E
0000000
0000008
002002E
0000002
0000000
0000000
000FFFA
000004A
000FFD2
0000000
004FFEC
000FFFC
0080000
000FFFC
0000016
0000018
0000000
000FFDA
000FFD8
000FFF2
000FFFE
0000088
0000036
000FFF4
000FFF2
0000002
000FFFE
000FFF2
0000008
0000008
0000000
0000000
0000000
0000000
0000000
0000000
000FFEE
0000000
002000C
0000002
000002C
000001A
000001E
0000016
0000002
000FFFE
000FFE4
000FFFA
0000006
00000AC
0000012
000FFFA
0000000
000001E
0000000
000FFFE
0000004
0000000
0000000
0000000
0000000
0000000
000FFFE
0000000
0000000
0000008
0000012
0000000
0000002
0000000
000FFF4
0000000
00C0000
0000000
0000000
00A0000
000FFD2
0000000
0000000
000000E
0000002
0000000
0000006
000FFBC
0000000
000000A
000FFFC
0000000
0000000
0000000
0000000
0000000
0000000
0000000
0000000
000FFFC
000FFC8
000FFF0
0000000
0000000
0000000
0500000
0000006
0000008
0000006
0000008
000FFB0
0000000
000FFAE
000FFF4
0000000
000FFFE
000FFFC
0000014
0000000
0000000
0000000
0000000
0000000
000FFF4
0000002
0000000
000FFF6
000FFFE
0000000
0000000
0100000
0000000
0000000
0000002
0000000
0000008
0000006
000000E
0000000
0000000
0000000
0000000
0000000
0000000
000FFFE
0000000
0000000
0000000
0000000
0000000
0000000
0000000
0000000
0000002
000FFF8
000FFFA
0000000
0000000
000FFE4
0000000
0000000
000FFFE
0000000
0000000
0000002
0000002
0000000
000FFFE
0000000
000FFCC
0000000
000000E
0000000
000FFFC
0000000
0000000
0000000
0000000
0000000
0000004
0000004
0000002
000FFEA
000FFFC
0000000
0000000
000FFE4
0000000
000000A
000001C
0000022
000000C
0000000
0000000
0000000
0000000
000FFD4
000FFEA
0000002
0000016
0000018
0000000
0000000
000000E
0000000
0000000
0000008
0000004
0000008
000FFEC
000FFF6
0000000
000FFFE
000FFD6
000FFEE
0000000
000002A
0000050
0000000
0000058
0000006
0000000
000FFD8
000FFB0
0000000
0000000
0000000
0000000
0000016
0000046
0000000
0000002
0000000
0000000
0000000
0000000
0000000
0000000
000FFFC
0000000
000FFF8
000FFE8
000FFA8
0000000
0000022
0000006
0000000
0000000
0000000
000FFF6
0000000
000FFE0
0000000
0000000
0000006
0000000
0000066
0000000
0000000
000FFFE
0000000
0000000
0000008
0000000
0000000
0000004
000FFF8
0000000
000FFF8
000FFFC
000FFFE
0000000
0000000
0000000
0000000
0000000
0000016
000FFC0
0000000
0000000
0000000
0000000
0000000
0000004
0000000
0000000
0000000
0000000
0000040
0000000
0000000
0000000
000000C
0000014
0000000
0000004
0000000
0000004
0000004
0000004
0000006
0000000
0000000
0000008
000000C
000FFF2
0000004
0000000
0000000
0000008
000000A
0000072
0000024
0000000
000FFF2
0000000
0000000
0000018
0000000
000FFFA
0000000
000000C
000FFFC
000001E
0000000
0000004
0000002
000000E
0000004
000000E
0000000
0000000
0000000
0000000
0000000
0000000
0000000
0000020
0000016
0000000
000002A
0000004
000FFEA
0000000
0000000
0000058
0000000
000FFFA
0000000
0000000
000FFF0
0000000
0000000
000000A
000001A
0000014
0000000
0000000
0000038
0000000
000000A
0000000
0000000
0000000
0000006
0000000
0000006
0000020
000000E
0000014
000FF50
000FFE6
0000000
0000000
000FFCC
000FFD6
0000000
000FFE8
000FFE0
0000004
0000002
0000002
0000000
0000000
000002A
0000018
0000022
0000024
0000004
000002C
0000002
0000000
0000006
000FFF0
0000002
0000000
0000012
000000A
000FFF8
000FFF4
0000000
000FFCE
000FFF0
0000000
000FFDC
0000000
000FFFC
000FFFE
0000000
0000000
0000000
0000002
0000000
0000004
000FFFE
0000000
0000004
0000022
0000002
000FFFE
0000024
0000000
0000034
0000006
0000032
0000002
000FFFE
000FF84
0000008
000FFF6
000FFFC
000FFFC
000FFF6
000FFF8
000FFFA
0000000
0000000
0000000
0000018
0000000
000FFF4
0000000
0000006
000FFFA
0000006
0000000
000FFF8
000FFFC
000FFFE
000FFEE
0000000
0000000
0000000
000FFFE
0000000
000FFF8
0000000
000FFEE
0000004
0000000
0000000
0000000
000FFF8
000FFEA
000FFFC
0000002
000003A
0000000
000FFF2
000005C
0000002
0000000
0000000
0000000
0000000
000FFFC
000FFFE
0000000
0000000
000001C
0000010
0000000
0000000
000FFCC
000FF52
000FFEA
000006C
0000020
000000E
0000000
0000000
000FFE4
000FFFE
000FFE8
0000000
0000000
0000006
0000008
000001E
0000020
0000002
000000C
0000026
0000000
000FFF6
000FFFA
000FFFE
0000000
0000000
0000000
0000000
0000000
0000000
000FFE4
000006C
000FFFA
0000000
000FFAA
0000000
000FFF8
0000000
0000000
000002E
0000000
0000004
0000006
0000000
0000000
000001A
0000018
0000002
000FFE2
000FFEE
000FFF6
0000000
0000000
0000000
0000000
000FFF0
000FFAC
0000024
0000000
000005C
0000014
0000000
0000000
0000000
000FFEC
000FFF0
0000000
0000000
000FFFC
000FFFA
0000000
0000000
0000000
0000000
0000000
0000000
0000000
0000000
0000000
000FFFE
0000000
0000000
0000000
0000002
0000002
0000000
0000002
0000058
0000000
0000018
0000000
0000000
000FFF0
000FFF4
000FFF0
0000004
0000008
008FFFE
0000000
0000000
000FFE4
0000000
000000A
0000004
000FFFE
000FFF8
000000A
0000000
0000000
0000000
0000008
0000000
0000012
0000018
000FFFC
0000002
0000000
0000010
0000004
0000000
000FFFA
0000000
0000000
0000000
0000028
0000000
0000000
0000000
0000000
0000000
0000000
000FFF8
000FFFE
000FFFE
0000000
0000026
0000038
0000000
0000004
0000046
0000000
0000014
0000002
0000000
000001E
0000008
0000000
000FFFE
0000000
0000002
0000000
0000000
000000C
0000000
000FFFE
0000000
000FFFC
0000000
0000000
000FFFA
0000000
0000014
0000008
0000000
0000000
0000000
0000000
0000026
0000000
000002C
0000000
0000000
0000002
0000048
0000000
0000000
0000000
0000000
0000000
0000000
0000006
0000000
000FFFE
0000000
0000000
0000000
0000000
00C0000
0000000
0000012
0000008
0000002
0000000
0000000
000000A
0000000
0000000
000FFE8
0000000
0000000
000FFFE
0000002
000002C
0000006
0000000
0000000
0000000
0000000
0000000
000FFFA
0000000
0000000
0000000
000FFFE
0000000
0000000
0000000
0000000
0000006
0000000
0000000
000FFF4
0000000
0000000
0000000
000FFFC
0000006
000FFEE
0000000
0000000
0000000
0000006
000003E
0000000
0000000
0000000
000FFE6
000FFFA
0000000
000FFFE
000FFFE
000FFDA
000FFD0
0000000
0000000
0000000
0000048
0000000
0000000
0000000
0000000
0000000
000FFF0
0000000
0000000
0000000
000FFF8
000FFE6
0000000
000FFF6
0000000
0000000
0000000
000FFF6
000FFFA
000FFF6
000FFF0
000FFE8
000FFE6
000FFFC
0000000
0000000
000FFFE
0000000
000FFF6
0000000
000FFEE
000FFF2
000FFF2
000FFF6
0000006
000FFFE
0000000
000FFFE
000FFCE
000FFF0
0000014
000FFF4
0000000
0000000
0000000
0000000
000FFE4
000FFBC
0000000
0000000
000FFDE
000FFF4
000FFFC
000FFEA
000FFF2
0000000
0000000
0000004
0000028
0000000
000FFE6
0000000
0000008
0000000
0000000
0000000
000FFFC
0000008
0000010
0000000
3BE0000
0000000
0000000
000FF3A
002FFE6
02AFFFA
02EFFFA
00EFFFA
0000010
0000012
3E2FFBE
0000000
000FFD0
000FFD2
3F20000
0000000
0000000
0000000
0000000
0000000
0000000
0000000
0000000
0000000
000FFF4
0000000
0000000
0000000
000FFE6
00C0000
3ECFFB8
000FFE6
000FFEE
03A0004
0000002
04C0062
0000076
000FFE6
028FFB0
000FF9A
000FF7A
01EFFFC
000FFFA
0000000
0000000
0000000
0000000
0000000
0000000
0000000
0000000
0000000
0000000
0000000
0000000
000FFBE
002FFBE
000FF96
0000000
000000E
000FFF8
0000000
0000000
0000084
060004E
000FFDA
0000004
000001C
0000000
000FFF8
000FFF8
0000000
0000000
0000000
0000000
0000000
0000000
0000000
0000000
0000000
0000000
0000014
0000000
0000002
0060026
000FFF6
0000084
01C0048
000FFE2
000FFDC
040004E
000006A
0000016
000FFE8
0000000
000001C
0000000
0260038
0060002
0000000
0000004
0000000
0000000
0000000
0000000
0000000
0000000
0000000
0000000
000000E
0000000
0000000
0080026
3FC000E
000000E
000FFF6
030FFFE
00E0000
02CFFFA
000003C
000000C
000FFF8
008FFF8
0000000
000000C
0060004
0020014
0000002
0000000
0000000
0000000
0000000
0000000
0000000
0000000
0000000
000000A
0000000
0000002
0000000
0060000
000FFF8
02AFFF0
000FFC4
004FFEE
0300000
0000000
046FFF8
0000000
0060000
002FFF2
0000000
000FFFE
008FFBC
00E0004
0000008
000FFD2
0000000
0000000
0000000
0000000
0000000
0000000
0000000
0000000
0000000
0000002
0000004
006FFFA
000FFF0
000FFF6
000FFFE
03C0000
02A0000
0620000
0060000
000FFB6
000FFFE
000FFFE
000000A
000FFF8
008FFFC
002FFD0
000000A
000FFFC
000FFF8
000FFFE
0000000
0000004
0000000
0000000
0000000
0000000
000002C
0040000
0000000
000FFDC
000FFFE
0000000
0040000
0000000
0000000
000FFF0
0020000
0000000
0000000
000FFDE
000FFF8
000002E
0000000
008FF96
000000C
0000010
0000000
0000000
0000000
0000000
0000000
0000000
0000000
0000000
0000006
0000010
0000000
03E0000
000FFFA
0180000
0000000
0000000
000FFCE
000FFDE
0220000
0000000
0000000
000FFFC
0000000
0000000
000FFE4
000FFB2
0000000
0000000
0000000
3F80000
0000000
0000000
0000000
0000000
0000000
0000000
0000002
0000000
0000000
0180000
0000000
0000000
000FFEA
0000000
0000000
0000000
000FFCA
000FFD2
0000000
0000000
0000000
0000026
000000A
0000000
000FFC6
000002A
000FFF4
0000000
0000000
0000000
0000000
0000000
0000002
0000000
0000010
006FFFA
018FFF6
0000000
000FFFA
0180000
3E8FF90
000FFF6
0000000
000000C
0000000
000FFE8
000FFDA
0000002
0000000
000FFFE
0000002
3FEFFA0
000FFF8
0000000
000FFF6
3EA0000
0000000
0000000
0000000
0000000
0000000
0000000
0000038
03A0000
0000002
0000010
000FFFA
0000000
0000000
0000040
0000000
000001A
0000000
0000000
0000000
0000000
0000000
0000000
0000000
3FE0000
0000000
0000000
0000002
0000000
0000000
0000000
0000000
000FFFA
0000000
0000000
0000008
0060008
0000006
000001E
0120036
0000026
0000000
0000000
000FFB4
0000000
0000000
0000000
000FFFE
000FFFA
00C0004
0000070
0000032
3F80002
0000000
000FFFA
000FFF0
0000000
0000000
0000000
000FFF2
0000000
0000000
0000014
00A0038
0000000
0000000
0000052
000001E
0000006
0000000
000FFFE
000FFF6
0000000
0000058
0000002
3FA0000
000FFFC
000001E
0000042
3F60042
3FA0002
0000000
0000002
000FFFE
0000000
0000000
0000000
0000000
0000000
0000000
0000012
0000038
000FFDE
0000000
0000016
0000000
000FFFA
01A0018
0000000
0000000
000003C
0000000
000000C
000FFF4
000FFEE
0000002
0000000
0000000
0000016
000FFF8
0000000
000FFF6
3F40000
3D80002
0000000
000FFE6
0000000
000FFFE
0000000
0000000
000FFE2
0000000
0000006
0000000
028001A
3F60000
0000012
3FC0002
0000000
000003E
0000008
3B80000
3C60000
0000000
0000000
3E80000
000002C
0140000
0000000
000FFF0
0000000
0000000
0000000
0000000
0000004
0000000
0000008
0000000
000FFAC
0000000
0060000
0000000
3FC0000
000FFFA
000FFCA
000000A
000FFEE
000003C
0000000
3C80000
0000000
0000000
3FEFFFE
000FFFC
000000C
000FFFA
0000000
000FFFE
0000000
3EA0000
0000000
0000000
0000004
0000058
0000000
0000000
0020000
0020000
0000000
0000058
0000000
0000000
0000014
0000002
000FFF2
0000000
000FFE2
3E40000
0000000
0000000
3FE0000
000000E
0000010
000FFFA
000FFFE
0000000
0000000
0000000
0000000
0000000
0000000
000000A
0000000
0000000
0000000
0040000
0000000
000000A
0000000
0000000
0000000
0000000
3F0FFFA
0000018
0000000
000FFFE
000FFE6
0000000
000FFF8
000FFF8
3DE0008
0000000
000FFFE
0000000
0000000
0000000
0000000
0000000
0000014
0000000
0000000
0000000
0000000
0080000
0000002
0000000
016FFFC
0000000
3F0FFF0
0000000
000FFFE
0000000
0000028
000FFFE
0000000
0000000
3FAFFF6
000FFFC
0000004
00A0004
000FFFE
000FFFA
00AFFEC
0000000
0000000
0000000
0000000
0000000
000FFFE
0000000
0000000
0000000
0000000
0000000
0100000
000FFF4
3DC0000
000FFC4
000FFF6
000FFF6
0000000
3D80000
000000C
0000000
000FFF2
000FFF6
0020004
0000000
0000000
0000000
000FFBA
0000000
0000000
0000030
0000000
0000000
0000000
0000000
00E0002
000FFFC
0000014
0000000
000FFFE
000FFA6
3FA0000
000FFD8
000FFEE
0000000
0000000
0000000
0000000
006FFF6
000FFF8
012FFF8
0000006
02C0004
000FFFC
000FFE4
000FFCC
0000000
0000036
0000012
0000000
0000014
0000000
0000000
0000002
0160000
0000016
0000002
0000000
0000000
0000000
0000002
0000000
0000000
000001C
0080006
0000030
0000000
0000000
048FFBC
0000018
0000004
0060000
000FFFE
0160000
0000016
0000000
0000000
0000000
0000016
0000000
0000000
0000000
0000000
000FFEC
0000000
000000A
0000018
0000000
000000C
0000000
0000018
000000A
000000C
000000A
0000000
000000A
0040000
0000000
000FFD2
000FFFA
0000000
0000000
0000000
0000000
000000C
0000000
0000000
0000000
0000000
01EFFE0
000FFFA
0000006
0000002
0000000
0000000
0000000
0000008
0000000
0000028
0000002
0000000
000FFBC
000FFFE
0000004
008FF8C
000FFD2
0000000
006FFF0
0020000
0000000
0000000
0000000
0000000
0000000
0000000
00C0022
0000014
0000000
000FFFC
3F6FFA0
000FFAC
0060000
000FFF6
0000000
0000000
0000000
0020000
000FFEA
000FFFC
004FFEA
000FFF2
0000000
0000000
000FFE6
000FFC8
000FFB2
000FFFE
0000000
0000000
000FFF6
000001A
0000000
0000002
0000006
000002E
0000000
0000000
3C2FFE4
000FFBA
00C0004
0000000
0000000
0000000
0000000
3FC0000
0000000
0000000
0120000
0000000
0020002
0000002
0000000
3EC0000
0000000
000FFF6
000000C
0000000
0000002
0000000
01EFFFE
000FFE4
018001A
0000024
000001C
0000000
000FF40
000FFB6
3E0FFB4
0000002
3C6FFFC
000FFF4
0000000
05A0000
000FFF0
3E80000
3D4FFFA
3F40000
000FFC8
3DCFFE6
000FFD4
0020000
000FFF0
0000000
000FFF2
0120000
0000000
0000000
0000000
0000000
000002C
0000000
0000000
3C20000
3F60000
0000000
06A0000
0000000
3D40000
0060000
3D60000
00A0000
0000000
0000000
0000000
0500000
0000000
3F00000
3B60000
3F20000
0000000
01C0000
0000000
0000000
0000000
0000000
0000000
0000000
3F20000
0000000
0000000
004FFF6
0020000
0040016
0000000
0000000
010FFAE
0000000
0000000
0000000
0520000
0400000
006FFD2
0000000
0280016
0000000
0000000
0000000
0000000
0080000
0120000
0000000
0000000
0000000
0000000
3FE0000
0000000
0000000
0000000
0000040
0000016
3F20000
0000000
05E0000
00A0000
01A0000
022FFD6
014FFA6
000FFF8
0300000
06A0000
0000000
0120002
0000000
0000000
0000000
0000000
0000000
0000000
0000000
0000000
0000000
0000000
0140000
0000000
0040000
0000000
00A0000
0000000
0000000
0000000
0060000
0020000
0260000
0020000
00A0000
0380000
0140000
0040000
0120000
0080000
3F20000
0020000
0160000
02A0000
0580000
0000000
0000000
0000000
0000000
0060000
0000000
0080000
0000000
0000000
0120000
3F00000
0000000
0000000
0000000
0080000
0180000
0100000
0040000
03A0000
0080000
0000000
0000000
0000000
0000000
0280000
0600000
0000000
0200000
0000000
0000000
0000000
0000000
0000000
0000000
00E0000
03E0000
0000000
0080000
3B00000
0000000
3FE0000
3E60000
0000000
0000000
0020000
008FFB6
0040000
0000000
0000000
0000000
3FE0000
3FE0000
0020000
0880000
0000000
0000000
0000000
0000000
0000000
0240000
0000000
0000000
0000000
000FFF8
0180000
0060000
0000000
0160016
0000000
0000000
0000000
3E00000
0180000
00A0000
0000000
3FA0000
3F00000
0000000
0000000
0000000
0080000
0020000
02C0000
0000000
0000000
0000000
0000000
0000000
0000000
0020000
0000000
0000000
0000000
01A0000
0000000
0000034
3FE0000
3F80000
0000000
0000000
0000000
0000000
0000000
0000000
0000000
0000000
0000000
3FC0000
0060000
0740000
0000000
0000000
0000000
0000000
0000000
0000000
0000000
00E0000
0000000
0540000
0020000
0040000
03E0000
000000E
3FE0000
3F80000
0000000
0000000
0000000
0000000
0000000
3FA0000
0000000
3D00000
3F80000
0000000
0000000
0020000
0040000
000FFFA
0000000
0000000
0000000
0000000
0000000
0000000
0000000
0660000
0780000
0000000
0000000
0000060
3F00000
0000000
0000000
3D60000
3DA0000
0000000
3F00000
3FE0000
3FA0000
0000000
3EC0000
3FA0000
0000000
0000000
0000000
3FE0000
0000000
0000000
0000000
0000000
0000000
0060000
3F20000
3FAFFFA
0500000
0000000
000004C
0000000
0000000
0000000
0000000
0000000
3E00000
0000000
0000000
0000000
0000000
0000000
000001E
0000000
3FC0000
0360000
00C0000
0000000
3E40000
000FFDE
0000000
0000000
0000000
03A0000
0000000
000FFF6
0020000
3F4FFFE
000000A
006000C
0000000
0000000
0000000
3D60000
0000000
0000000
3F80000
3F20000
0000000
0160000
0000000
0000000
0000000
0000000
036FFFA
000FFF8
0000000
000FFD8
0000000
0000000
0000000
0000000
3FE0000
02A0000
0340000
0000000
0000000
0000022
01E0000
0000000
0000000
0000000
3D6FFFC
3F00000
3CA0000
0000000
000FFFE
004FFE4
3FE0000
0000000
3FE0000
0000000
00CFFE4
0000000
0000000
000FFC4
0000000
0000000
0080000
0000000
3F80000
0000000
0000000
0000000
3BE0000
0000002
0000000
000FFEE
0000000
0000000
0000000
3FAFFF8
3BA0000
0000000
00A0000
0000000
0000000
3D80000
0000000
0000000
000FFFE
0000000
0000000
0000000
0000000
0000000
0000000
0000000
0000000
0020000
0000000
3DA0000
0000000
000000C
0060000
000FFFC
0000000
3F2FFB4
0000000
0000000
3FCFFFA
000FFF8
0000000
0000000
0000000
0000000
3F20000
0000000
000FFF8
0000000
3FC0000
0000000
0000000
0000000
0000000
0000000
0000000
0000000
0000000
3FA0000
0000000
0000004
0000000
0000000
3FE0000
3F40000
0000000
0000000
3FC0000
0000000
0000000
0060000
0000000
0000000
3F80000
3D0FFE2
00AFFFC
0000000
0000000
0000000
0000000
0000000
000FFF8
0000000
0000000
05A0000
0000000
0000000
3FC0000
3EE0004
01E0000
0000000
0000000
0000000
0000000
000FFCC
3F2FFFA
000FFF2
0000000
04A0000
3BCFFEE
3B00000
0000000
000FFDA
0000000
0160000
0000000
000FFF2
0000000
0000000
000FFCA
0000000
0000000
0080000
0000000
3FCFFFE
0000000
3CC0000
0000000
3E40000
000FFF2
0000000
000FFFC
3C8FFEE
3F8FFC8
00CFFCC
004FFF2
3F00000
000FFEE
3CC0000
0000000
0000000
0000000
0000000
0000000
000FFF6
0000000
0000000
0000000
000FFD8
0040000
0020000
0000000
3F2FFFE
39A0000
0000000
0000000
0000000
0000000
3E60000
0000000
0000000
3FAFFFE
0020000
000FFD8
0000000
002FFFC
3F80000
3AA0000
0000000
0000000
0000000
0000000
3F20000
0000000
0000000
0000000
0000000
0120000
0000000
0000000
3F60000
3F40000
0000000
000FFC8
0000000
0000000
0000000
0000000
0000000
3C6FFE4
0000000
0000000
0000000
0060000
0000000
3EE0000
3960000
0000000
0000000
0020000
000FFD6
000FFF0
0000000
0000000
0000000
0020000
0000000
3C60000
3FC0000
0000000
0000000
0000000
0000000
0000000
0000000
000FFFE
0000000
0000000
0020000
0000000
3FE0000
0040000
0000000
0000000
3CE0000
0000000
0000000
0040000
0000000
0000000
3FA0000
0000000
0000000
01A0000
0000000
3C80000
3FE0000
0000000
0560000
0000000
0000000
0000000
0000000
0000000
3C40000
0000000
0000000
0000000
0000000
03E0000
0000000
3C80000
3FE0000
0000000
0000000
0000000
0000000
0000000
0000000
0000000
0000000
0020000
0000000
0000000
3EE0000
0000000
0380000
0000000
3EE0000
0000000
0000000
0000000
0000000
0000000
0000000
0000000
0000000
0000000
0000000
0000000
3A2FFFE
0000000
000FFFE
0000000
0000000
0000000
0000000
0000000
0000000
0000000
3FE0000
3900000
3FA0000
0100000
0060000
0000000
0180000
0000000
0000000
0000000
0000000
0000000
0000000
0360000
0000000
0200000
0000000
0000000
33A0000
0000000
3CEFFFE
0000000
00C0000
0000000
0000000
0000000
0000000
0000000
3E20000
3EA0000
0000000
0460000
04E0000
0000000
0000002
0000002
0000002
0000000
3DC0000
3F80000
0000002
0000012
0000004
0000002
00E0000
0000000
3EE0000
0000000
3E6FFF4
0000000
00C0000
0000000
0100002
0000000
0000000
0000000
0000000
3B60000
3FC0000
000FFFC
0000000
0000000
3FE0000
0000000
0000000
3F40000
3DE0000
0000000
0000000
0000000
0000000
0280000
0000000
3F6FFF2
000FFFE
3C40000
0020000
0000000
0000000
0000000
0020000
0000000
3FE0000
3C20000
0000000
0000000
0000000
3FA0000
0000000
0000000
0000000
0000000
3FE0000
0000000
0000000
0000000
0000000
000000A
0000018
0000000
3F40000
3E0FFF8
0000000
3F80000
0000000
3D20000
0000000
0000004
3FC0000
3F80000
3E60000
0000000
0000008
000000E
0020000
0000000
3CE0000
3FE0000
0000000
0080000
0000000
0600024
0260094
0000000
0140006
0000000
0000000
0000000
0060000
0000000
0000000
0000000
0000000
0000000
3FA0000
0000000
0000000
0000000
0000000
0000000
0000000
0000000
0000000
3900000
3840000
3E80000
3980018
3600000
0000000
022FFC8
032FFC2
018FFB8
3F80000
3E80008
0000000
37E0000
3D00000
3F2000E
3E40000
0000000
0000000
0000000
0000000
0000000
0000000
0000000
3E60000
3FA0000
0000000
004FFF6
3EA0000
0000000
0000000
0000004
3FA0000
0000000
0000000
0000000
0040000
04CFFE8
000FFFA
0000000
0000014
3EC0000
3EE0000
0000000
0000000
0000000
3C20000
3A20000
0000000
3A60000
0000000
0000000
0000000
3F80000
014FFFC
0000000
0000000
0000000
0000000
0000028
0000000
0000000
000FFC4
03AFFC2
0000000
0000000
014FFC0
0000000
0000000
0000000
3F20000
000FFDC
000FFC4
0000000
3BA0000
0000000
0000000
0000000
0000000
0000000
0000000
3C00000
0040000
0000000
0000000
0000000
0000014
0000000
3A20000
0000000
0000000
000FFDC
000FFCE
0000000
0000000
3EA0000
3E80000
0000000
0000000
3FC0000
0000000
000FFDE
0000000
0000000
0000000
3FE0004
000FFF6
0000000
0000000
000FFDC
0000000
0000000
0000002
00A0000
000000C
0000000
0000000
0000000
000FFE2
0000000
3E40000
0000000
000FFFE
000FFF8
3CE0000
3B80000
0000000
0000000
3D60000
0000000
0000000
0000000
0000000
3FC0006
0000000
0000000
3E2FFF0
0000000
0000000
0000000
0000006
0000000
0000000
0000000
0000000
0000000
0080000
0000000
3D0FFF4
0000000
0000000
0000000
0000022
0000000
0020000
00C0002
0000000
0000000
0040000
02E0000
0000000
0000000
3FA0000
3EE0000
0000000
0000000
0020000
0000000
0000006
0000000
0000000
0000000
0000000
0000000
0120000
0000000
000FFCC
3DEFFFC
0000000
0000036
0020038
0000036
0000000
0000000
0020002
002FFBC
008FFDA
01AFFE4
000FFF6
006FFEE
0000000
3DC0000
0000000
0040000
0000000
0000000
0040008
0000000
0000000
0000000
0080000
0040000
00C0000
0000000
3D0FFA0
0000000
0000000
3E40010
0000022
3F20080
0000000
0000000
0000006
000FFE8
0000000
02CFFB4
002FFDE
000FFFE
0000000
0000000
0000000
0020002
0000000
0000000
0000008
0000000
0000000
000FFF6
0000000
000FFFE
014FFE8
0000000
3EEFFE2
3F6FFE2
0000000
0000000
0000000
002FFF8
000FFEA
000FFD0
3FA0004
000FFC8
0000006
0000000
000FFE2
3E40000
0000000
0000000
0000000
0000000
0000000
0000006
0060006
0000000
0000000
0000000
000FFE4
0000000
0000000
3EC0000
3AAFFA8
0000000
002004A
0000020
0000000
0000000
3FE0000
000FFC6
3920008
3BC0006
0000000
000FFB0
3FAFFEA
3FA000A
0000000
0000000
0000000
00C0002
0000000
0000002
0000000
0000000
0000000
012FFA8
016FFEE
0000000
0140000
3E2FFFA
3E80000
0080000
000FFF8
0000036
006FFFE
004FFE0
3FA0000
000FFF0
0000004
3F0003C
000FFF6
000FFF6
002FFB2
000FFFC
0000000
0000000
0000002
0000010
0000000
0000000
0000000
0000000
000FFFC
00A0000
0160068
000000C
0020046
3E60000
0000000
000FFFA
0000000
0000008
3FC0004
0020000
3F00000
0000000
0000004
3E60000
3F20000
0000000
39AFFFE
0000000
0000000
0000000
0100018
0000002
0000048
0000000
0000000
0000000
0000000
0000000
0000008
0000002
000FFEA
3ACFFFC
0000000
3F40000
000001A
000001A
000FFFE
0000000
0000000
000FFEC
0000000
0000000
0000000
000000A
3FC0000
000FFF4
0000000
00E0000
006002A
0000000
0000030
0000000
0000004
3BE0016
3DC0000
0000002
3B60020
000FFF6
000FFF6
0000000
0000000
0000000
0000016
0000004
3EE0012
0000008
3F80018
0000000
008FFD0
0000000
000000E
0000012
3D60000
008FFE6
0000000
0000000
0000000
0060000
0080000
000FFC8
0000000
3FE0002
3EE0048
3E40014
0000000
000FFF2
000FFFE
0000000
3F80008
0000002
0000006
0000000
3F00000
0000002
3F80000
0000000
000FFFC
0000000
000004A
000002E
000000A
018FFCE
3D0FFF6
000FFF6
0000006
0000000
0000000
000FFB8
0000000
3DA0000
3C8001A
3CA0000
3B40000
000FFFC
0000000
0160000
0000000
0000000
3FE0000
3F4FFFA
3EC0000
0000000
3C6001E
3F80004
0000010
0000000
0000000
3DE0022
000FFF4
000FFB8
3FA0000
3C00002
000001A
0000026
000FFE0
0000000
3F40000
3FE0000
0000000
3D2FFFE
000FFFC
3F40000
3AC0000
000FFF4
3E4FFF8
000FFFA
0000000
3D60034
3F60000
0020000
0000000
0000000
000FFFA
3F20000
3BAFFFE
0000000
000FFFE
0000000
3EC0000
0000042
0180000
01C0000
0000000
000FFE6
0000000
3FEFFC8
3F20000
0000000
0000000
3DC0042
0000000
000FFDC
3FCFFFE
0000000
0080000
0000000
0000000
0020002
0000000
0000000
3F60000
3BA0000
3FE0000
0000000
000FFFE
0000000
000002C
0000010
00C0000
0060000
0000004
0000006
0020000
000FFB6
0000000
0000008
0000000
002FFFC
02E0000
000FFFE
3D2FFE8
0000000
000FFE2
000FFF2
0000000
0000000
0400000
000FFFA
3D60000
000FFFC
0000000
3DE0004
3BE0000
3DC0000
3C20002
0000010
07A0000
0420004
0020008
002FFC4
0000000
0000000
0000002
3DC0000
000FFFA
0000000
0000000
000FFF8
0000000
000000A
0040000
0020000
0020000
0100000
00A0000
0000000
0000004
0000000
0000000
0000000
3EE0000
3BC002E
0000032
0020000
0020000
06A0000
000FFF6
000FFF8
0040000
0020000
0000004
0060000
0100000
020FFE4
0300000
004FFEC
0000000
01E0004
0000002
008005C
0000058
0000010
0560000
3FE0000
0000000
0000000
000FFFE
3FCFFB0
000FFFC
0000016
008000A
000FFF0
0000000
0000000
0000000
0000000
000FFD0
0000000
0000004
0080000
0240000
0000000
00EFFC6
0000000
0240000
0140000
000000A
0000000
0000040
000003E
056FFFC
000FFB8
0000000
000FFF2
000FFC2
000FF8C
000FFF4
0100014
0040000
012FFFC
0000000
000FFE0
0000000
0000000
000FFEC
0000000
0000000
0000000
0000000
0000000
00A0000
000FFFC
000FFF4
0000000
3FA000A
0000000
3960062
000000C
008FFA2
000FFBE
000FFDE
000FFF4
000FFC8
000FFEC
000FFCE
04A0000
0000000
0000000
0140000
0020000
0020000
0140000
0000000
002FFFA
0000000
0000000
0000000
0000000
0000000
3F6FFD0
000FFD8
0000000
3FE0000
3D00022
3DC0000
000FFFE
000FFD4
3FA0000
000FFF8
002FFF8
0020000
012FFEE
000FFE0
0160000
0040000
0000000
0020000
000FFFC
0040000
000FFF4
0100006
0140000
0000002
0000002
0000000
3FEFFF4
000FFE4
3FCFFCA
0000000
0000000
0000000
0000000
3FE0000
0000028
01C0000
3FE0000
0000000
0020000
0040000
0060000
000FFF4
0000000
0000000
0000000
0000000
0000000
0000000
0000000
0280000
00C0000
0280000
0000000
000FFD8
0000000
0000000
000FFD2
000FFE6
0000000
0000000
0000000
00E0000
0000000
0000000
0000000
0000000
0000000
000FFF2
000FFE4
0000000
0000000
0000000
0000000
00A0000
0340000
0000000
3F40000
0000000
0060000
0000004
0000002
008FFEC
0000000
0000000
000FFBE
000000C
0000000
0000000
0000000
0000000
0000000
0000006
3FA000E
0000000
000FFFE
0000000
0000000
3F20000
010FFF8
0000000
0000000
0000000
0000000
000FFFE
0000000
0000000
0000000
0500000
000FFE2
000FFFE
000FFCC
0000000
000FFFA
0560000
3CC0004
0000000
3FC0000
3F80000
0000000
0000000
0000000
000FFB4
0000000
0120000
00A0000
0000000
0000000
0000000
0000000
0000000
0000000
0000000
0000000
0000000
000FFE6
0000000
0000000
0000000
0000000
0000000
0000000
0000000
0000000
0000000
0000000
0000000
0000000
0000000
0000000
0000000
0000000
0000000
0000000
0000000
0000000
0000000
0000000
0000000
0000000
0000000
0000000
0000000
0000000
0000000
0000000
0000000
0000000
0000000
0000000
000FFF8
000FFF6
0000000
0000000
0000000
0000000
0000000
0000000
0000000
0000000
0000000
0000000
0000000
0000000
0000000
0000000
0000000
0000000
000FFFC
0000000
0000000
0000000
0000000
0000000
0000000
0000000
0000000
0000000
0000000
0000000
0000000
0000000
0000000
0000000
0000000
0000000
0000000
0000000
0000000
0000000
0000000
0000000
0000000
0000000
0000000
0000000
0000000
0000000
0000000
0000000
0000000
0000000
0000000
0000000
000FFEA
0000000
0000000
0000000
0000000
0000000
0000000
0000000
0000000
0000000
0000000
0000000
0000000
0000000
0000000
0000000
0000000
0000000
0000000
0000000
0000000
0000000
0000000
0000000
0000000
0000000
0000000
0000000
000FFD2
0000000
0000000
0000000
0000000
0000000
0000000
0000000
0000000
0000000
0000000
0000000
0000000
0000000
0000000
0000000
0000000
0000000
0000000
0000000
0000000
0000000
0000000
0000000
0000000
0000000
0000000
0000000
000FFDC
0000000
0000000
0000000
0000000
000FFF4
000FFF6
0000000
0000000
0000000
0000000
0000000
0000000
0000000
0000000
0000000
0000000
0000000
0000000
0000000
0000000
0000000
0000000
000FFFE
0000000
0000000
0000000
0000000
0000000
0000000
0000000
000FFEE
0000000
0000000
0000000
0000000
0000000
0000000
0000000
0000000
0000000
0000000
0000000
0000000
0000000
0000000
0000000
0000000
0000000
0000000
0000000
0000000
0000000
0000000
0000000
0000000
000FFD4
0000000
0000000
000FFF6
0000000
0000000
0000000
0000000
0000000
0000000
0000000
0000000
0000000
0000000
0000000
0000000
0000000
0000000
0000000
0000000
0000000
0000000
0000000
0000000
0000000
0000000
0000000
0000000
0000000
0000000
0000000
0000000
000FFB0
000FFD2
0000000
0000000
0000000
0000000
0000000
0000000
0000000
0000000
0000000
0000000
0000000
0000000
0000000
0000000
0000000
0000000
0000000
0000000
0000000
0000000
0000000
0000000
0000000
0000000
0000000
0000000
0000000
0000000
0000000
0000000
0000000
0000000
0000000
0000000
0000000
0000000
0000000
0000000
0000000
0000000
0000000
0000000
0000000
0000000
0000000
0000000
0000000
0000000
0000000
0000000
0000000
0000000
0000000
0000000
0000000
0000000
0000000
0000000
0000000
0000000
0000000
0000000
0000000
0000000
0000000
0000000
0000000
0000000
0000000
0000000
0000000
0000000
0000000
0000000
0000000
0000000
0000000
3F60000
0000000
000FFF0
0000000
0000000
0000000
0000000
0000000
0000000
0000000
0000000
0000000
0000000
0000000
0000000
0000000
0000000
0000000
0000000
0000000
0000000
0000000
0000000
0000000
0000000
0000000
0000000
0000000
0000000
0000000
0000000
0000000
000FFF8
0000000
0000000
0000000
0000000
0000000
0000000
0000000
0000000
0000000
0000000
0000000
0000000
0000000
0000000
0000000
0000000
0000000
0000000
0000000
0000000
0000000
0000000
0000000
0000000
0000000
0000000
0000000
0000000
0000000
0000000
0000000
0000000
0000000
0000000
0000000
0000000
0000000
0000000
0000000
0000000
0000000
0000000
0000000
0000000
0000000
0000000
0000000
0000000
0000000
0000000
0000000
0000000
0000000
0000000
0000000
000FFE6
0000000
000FFE8
0000000
0000000
0000000
0000000
0000000
0000000
0000000
0000000
0000000
0000000
0000000
0000000
0000000
0000000
0000000
0000000
0000000
0000000
0000000
0000000
0000000
0000000
0000000
0000000
0000000
0000000
0000000
0000000
0000000
0000000
0000000
0000000
0000000
0000000
0000000
0000000
0000000
0000000
0000000
0000000
0000000
0000000
0000000
0000000
0000000
0000000
0000000
0000000
0000000
0000000
0000000
0000000
0000000
000FFD0
0000000
0000000
0000000
0000000
0000000
0000000
0000000
0000000
0000000
0000000
0000000
0000000
0000000
0000000
0000000
0000000
0000000
0000000
0000000
0000000
0000000
0000000
0000000
0000000
0000000
0000000
0000000
0000000
0000000
0000000
0000000
0000000
0000000
0000000
0000000
0000000
0000000
0000000
0000000
0000000
0000000
0000000
0000000
0000000
0000000
0000000
0000000
0000000
0000000
0000000
000FFEE
0000000
0000000
0000000
0000000
0000000
0000000
0000000
0000000
0000000
0000000
0000000
0000000
0000000
0000000
0000000
0000000
0000000
0000000
0000000
0000000
0000000
0000000
0000000
0000000
0000000
0000000
0000000
0000000
0000000
0000000
0000000
0000000
0000000
0000000
0000000
0000000
0000000
0000000
0000000
0000000
0000000
0000000
0000000
0000000
0000000
0000000
0000000
0000000
0000000
0000000
0000000
0000000
0000000
0000000
0000000
0000000
0000000
0000000
0000000
0000000
0000000
0000000
3D4FFFC
000FFF4
0000000
0000000
0000000
0000000
0000000
0000000
0000000
0000000
0000000
0000000
0000000
0000000
0000000
0000000
0000000
0000000
0000000
0000000
0000000
01A0000
0000000
0000000
0000000
0000000
000FFFA
0000000
0000000
3F00000
3EE0000
0000000
0000000
0000000
0000000
0000000
0000000
0000000
0000000
0000000
0000000
0000000
0000000
0000000
0000000
0000000
0000000
0000000
0000000
0000000
0000000
0000000
0000000
0000000
000FFE0
0000000
0000000
3EC0000
0000000
0000000
0000000
0000000
0000000
0000000
0000000
0000000
0000000
0000000
0000000
0000000
0000000
0000000
0000000
0000000
0000000
0000000
0000000
0000000
0000000
0000000
0000000
0000000
0000000
0000000
000FFCC
0000000
0000000
0000000
0000000
0000000
0000000
0000000
0000000
0000000
0000000
0000000
0000000
0000000
0000000
0000000
0000000
0000000
0000000
0000000
0000000
0000000
0000000
0000000
0000000
0000000
0000000
0000000
0000000
0000000
0000000
0000000
0000000
0000000
0000000
0000000
0000000
0000000
0000000
0000000
0000000
0000000
0000000
0000000
0000000
0000000
0000000
0000000
0000000
0000000
0000000
0000000
0000000
0000000
0000000
0000000
0000000
0000000
0000000
0000000
0000000
0000000
0000000
0000000
0000000
0000000
0000000
0000000
0000000
0000000
0000000
0000000
0000000
0000000
0000000
0000000
0000000
0000000
0000000
0000000
0000000
0000000
0000000
0000000
0000000
0000000
0000000
0000000
0000000
0000000
0000000
0000000
0000000
0000000
0000000
0000000
0000000
0000000
0000000
0000000
0000000
0000000
0000000
0000000
0000000
0000000
0000000
0000000
0000000
0000000
0000000
0000000
0000000
0000000
0000000
0000000
0000000
0000000
0000000
0000000
0000000
0000000
0000000
0000000
0000000
0000008
0000000
0000000
01C0000
01AFFA2
01CFFAA
0000000
000FF6A
3FE0016
000002C
3F40000
0000000
3DAFFA4
0000002
3EEFFC6
0000002
0000000
000FFEC
016FF8C
0740000
004FFEE
0000000
0000000
0000000
0000000
0000000
0000000
0000000
0000008
0000000
00AFFEC
0000000
0000000
0000000
0000000
3BA0008
3FA0018
000FFFE
000FFF8
000FFCE
3F8FFEA
0000000
3C6FFE0
3EA0000
0000002
000FFFE
000FFDC
000FFD4
0000000
0440000
0000000
0000000
0000000
0000000
0000000
0000000
0000000
022FFB2
0000000
0000000
0000004
0000000
000FFFE
000000E
0000006
0000000
0000000
0000000
0000064
000004E
000FFEC
0000000
0000000
000FFFC
0000000
3F80000
0000002
0000000
0020000
0000000
0000000
0000000
0000000
0000000
0000000
0000000
0000000
0000008
0000000
0000000
000FFBC
0000000
0000000
0000000
000FFFC
000004A
0000042
0000000
3FE0000
3F20000
0000000
0000000
0000000
0000000
3F40000
0000000
0000000
0000000
0000000
3FE0000
0000000
0000000
0000000
0000000
0000002
0000026
000FFFE
000FFD6
0000000
0000000
0000000
0000000
3FEFFF0
000001A
0000050
3EE0000
0000000
0000000
0000000
0060000
0080000
0000000
3FE0000
0000000
0000000
0000000
0000000
0000000
0000000
0000000
0000000
0000000
000000E
0000000
000FFA0
0000000
0000000
0000000
0000014
0000000
0000000
0000020
0000000
0000000
000001A
0000000
0000000
0000000
0000002
0000000
0000020
0000000
0000000
000001C
0000000
0000000
0000000
0000000
0000000
0000012
3FC0000
000FFFE
000FFE4
0000000
000FFF4
0000000
0000008
0000000
3FC0000
0000000
00AFFFE
3CE0000
0000000
0000000
000004C
0100000
0000006
0000000
0080000
0000032
0000000
0000006
0000000
0100002
0000000
0000000
0000000
0000008
3EE0000
000FFF2
0000000
0000000
0080000
0000000
0000004
0000000
0000000
0000000
0000000
0000000
0000000
0000000
0000000
07A0000
0020002
0000000
0000000
3F80004
0000000
0000000
00C0000
0000000
0000000
0000000
0000000
0000000
0000000
000FFF6
000FFD0
000FFDC
0000000
0000000
0000000
0000000
0000000
0040000
0000000
0000000
0000000
0000000
004FFFA
06A0000
0000000
0000000
0320000
0000044
0000000
0000000
00A0000
0000000
0000000
0000000
0000000
000000A
0000000
000FFFC
0000000
0000000
0000000
0000000
000FFFE
0000000
0000000
0000010
000FFF0
3E20000
0000004
0000000
0000000
000007A
00E000E
0620012
000000E
0260000
0000000
0000000
0000000
0100000
0000000
0000000
0000002
0000000
0000000
002FFE6
02E0000
0000004
0000000
0000000
0000000
0000002
0000002
0000000
000FFFE
0000000
0000006
0000000
000002C
0000016
0000000
0440004
0520000
0000000
3EA0000
3F00000
0000000
0000000
0000000
0000000
0000000
0000000
0000000
000FFFE
0000000
000000A
000001E
000001A
0000000
0000000
0000000
000FFFA
0000000
3E00004
0000010
3F40000
0000012
0000046
0000000
04A0016
0500000
0000000
3F60000
0000000
0000000
0000000
0000000
0000000
0000000
0000000
0000000
0000000
000FFFE
0000000
0000042
000001E
0080000
0000000
0000000
0000000
048FFFE
0000008
0000010
0000000
000000C
3FE0044
0000000
0520000
0440000
0000000
0000000
0000000
0000000
3F20000
0000000
0000000
0000000
0000000
0000000
0000000
000FFFC
0000000
0140060
0000000
0000000
0000004
0000000
0000000
0000000
0000002
0020000
000FFA4
0000000
0000000
00C0018
038FFC6
0000000
0000000
0000000
0000000
000FFF8
3FA0000
0000000
0000000
0020000
000FFFC
0000000
0000000
3FEFFCE
0000000
0080002
0000000
0000002
0000006
0000000
000000C
0000000
3F00000
0000000
0000000
0000000
0000000
0000000
0000000
0000000
0000000
00E0000
0000000
0000000
3F40000
0000000
0000000
0000000
0000000
0000000
0000000
000FFF4
058000A
0020000
000000C
000000A
0000002
0000000
0000000
000FFFA
3EA0000
0000000
3EA0000
0000000
0000000
0000058
0500000
0000000
0000000
0000000
0000000
0000000
3EA0000
3E20000
3EE0000
000FFAC
0180000
0000000
0000000
0000000
00E0064
0580002
01A0000
0000000
000FFF8
3FA000A
0060000
000FFFE
3FE0000
0000000
0000008
0000002
0000000
042000E
0060000
0000000
0000000
0000000
0000000
3FC0000
0000000
3C20000
3DE0000
004FFF0
0000000
000FFEC
0000000
0000000
01C001C
05A0012
0000000
0000000
0000002
0000002
02A0000
0000000
0000000
0480000
0160000
0000000
0000000
0000020
00C0000
0000000
3F80000
3FA0000
000001E
0000000
0000000
0000000
3FE000E
0000000
0000000
0000000
3D20000
000FFF6
0100016
0000004
3FA0000
000FFC2
0000004
0000002
0000000
0000000
0000000
0000008
0140000
0000000
0000000
0000000
0020000
0000000
0000000
0000000
0000000
0000000
0000000
016FFEE
0000000
01E0000
00A0000
0000000
0000000
000FFFE
0040034
0000002
0000000
000FFE6
0000000
3F20000
000001A
0000000
0000000
0000012
0020000
0020000
0000000
0000000
0180000
0000000
0000000
0000000
0000000
0000000
0080000
000FFD4
0000000
0000000
0360000
000FFFC
0000000
0000000
0000006
0000000
0000000
000FFDA
0000000
000FFD6
0000000
0000000
0000000
000000A
0000000
0000000
0000000
000FFFE
0000000
000FFFE
000FFFC
0000000
3FE0000
0000000
002FFFE
000FFB6
0000000
000FFFE
0040000
000FFE4
0000000
0000000
0020000
0200000
0000000
000FFFE
000FFFA
004FF90
0000000
0000000
000FFFE
0000000
000FFA8
0000000
0000000
000FFDE
0000000
000FFFE
3FAFFF0
0000000
3DC0000
0000000
000FFEC
0000000
0000000
0000000
0000000
000FFF0
0000000
0000000
000FFFE
002FFEA
0000000
000FFE4
000FFF6
0000000
0000000
0000000
000FFF8
0000000
000FFD4
000FFF4
000FFFA
3FAFFD4
0000000
3F20000
3E6FFF8
3FC0000
3F40000
0000000
0000000
0000000
0000000
0000000
0000000
000FFE2
0000000
0000000
0000000
000FFE0
000FFF2
0000000
0000000
0000000
3FC0000
000FFF8
000FFF8
3FE0002
0000000
0000000
0000000
3F0FFBA
0000000
0000000
000FFF6
0000000
0000000
0000000
0000000
0000000
0000000
0000000
0000000
0000000
000FFEC
000FFA4
0000000
000FFF0
000FFE2
000FFFC
000FFBA
0000000
000FFBA
000FFFC
0000000
0000000
0000000
0000000
0000000
0000000
0000000
000FFFC
3FAFFF8
0000000
3FA0000
3F60000
3EE0000
0000000
0000000
0000000
3FE0000
0000000
0000000
0000000
0000000
0000000
000FFF6
0000000
000FFF4
000FFFA
000FF58
000FFF4
000FF8C
000FFFE
0000000
000FFE6
000FFFE
0000000
0000000
000FFD6
0000000
0000000
3FE0000
0000000
0000000
0000002
3EA0002
000001E
0000000
0040000
0000000
016FFFC
0300000
0020000
0000000
000FFB2
0000000
000FFF4
000FFA4
01CFF82
000FF80
000FFBC
000FF8A
000FFC6
000FFC8
0000000
0000000
0000000
0000000
0000000
0000000
0000000
000FFFC
0000022
0000000
3EC0000
0000000
000FFFC
000FFF6
0000000
0000000
0000000
000FFF2
000FFAE
000FFDE
0000000
000FF6A
000FFD2
3C20000
3FEFFF0
3AA0000
3FA0000
0000000
000FFC0
0000000
0000000
0000000
0000004
3BC0000
0000002
0000000
0000000
0000000
0040002
3F2FFF4
3FCFFFA
0000000
3CE0000
0040000
000FFEA
3F6FFFA
0000012
000FFF6
01EFFFA
00A0000
00AFF96
000FFF8
3EEFFFA
0000006
3F8FFF0
020FFD8
0040000
000000A
3F4FFEA
0000000
0000000
0000000
0000000
0000000
0000000
0000000
0000000
0000000
000FFF2
0000000
3FE0054
0000000
000002A
0000084
0000002
0000000
0000000
0200000
0160000
000FFCE
000FFDE
000FF9E
0020000
0120000
00A0010
0000022
0000072
3DCFFFA
0000000
0000000
0000000
3EC0000
0000000
0000000
00A0000
0000000
3E0000A
0000012
0000000
0000000
0000000
000002E
000FFFA
0000000
3F40000
0000000
0020000
000FFA2
0000000
000002A
0000000
0000000
0040000
0380000
0020002
000001C
3F8000C
3FE0000
0000000
0000000
0000000
0060000
0000000
0000000
0000000
0000006
000FFFC
3FE002E
01E0000
0020000
3C4FFFE
0000000
3F8FFFC
3DC0000
3EA0000
0000000
0000002
012FFF6
0000000
01A0000
006FFFC
000FFE0
0120000
0160000
02A0000
0000000
0000000
0000000
0000000
0160000
0000000
000FFC8
0360004
0000000
004000E
3EE0006
0000000
3F8FFF6
3FE001A
0000038
000FFF4
3D80000
3760000
0080000
0000000
0000004
0000000
0000002
0000000
0020000
00AFFFE
00E000E
0340000
0040000
00A0000
0000000
0060000
0020000
0040000
00C0004
0000000
0060000
000000E
3DC0000
3D60016
3F00000
0000018
0000000
0000000
0000000
0000000
0120000
0000000
0000046
0000000
0000000
3FA0000
0000000
0000000
0000008
0000000
04A0000
00C0000
0000000
0000000
0020000
0000000
0000000
3FE0000
01E0000
3F60022
3F4FFF6
000FFFC
0000046
0000060
3E60020
000FFFE
000FFEA
3F20000
000FFDE
0000010
0000002
0000000
000FFFC
0000000
0000022
000000C
042FFEA
0000000
0120000
0000000
0000000
0000000
01A0000
0000000
0000000
0000000
0140000
0000012
3980000
3F8FFDA
0000008
3E80000
3F20000
000FFFC
0000000
3EC0000
0000000
0060000
3FE0000
0000000
000FFD2
3E80000
3FC0000
0000002
01E0000
0000000
0020000
0000000
0400000
0000000
0000000
3FE0000
000FFEC
0000000
0000006
0000042
376FFC4
000FFCC
0000000
3F80000
0000026
000FFFC
0000000
0000000
000FFFE
0140000
000FFDE
00E0000
3FE0000
0000000
0000016
002002A
000FFDC
0000000
0620000
0000000
0200000
0000000
0000000
0000000
0000000
0000000
000001E
0000000
3C00000
0000004
000FFDE
3FC0002
0040000
0000000
0000000
0000000
0000000
0000000
000FFE4
002FF74
0000000
02A000A
026000E
0180000
0000000
0000000
0060000
0480000
0000000
0000000
0000000
0000000
0000000
0000000
0000000
3FC0000
3E60000
3FE0000
000FFC6
0080018
0180038
00C0000
0000000
0000000
0000000
3F8FFFC
0000000
000FFB2
3F0FFD0
0000000
00A000C
006FFFC
000FFEA
0000000
3FE0000
000FFF6
0000000
0000000
0000000
0000000
0000000
0000008
0000000
0000000
3FC0000
0020000
016FFF2
01A0000
0720000
0760000
034FFFC
012003A
02EFFFC
0000000
3F00000
0000000
3C6FFFE
0000000
3FA0000
0000000
3E4FFE2
3C20000
3820000
3AE0000
0000000
0000000
0000000
0000002
0000000
0000000
0000000
3BE0000
3FE0000
0140000
0260000
0000000
0080000
000FFFE
3FEFFFE
3FE0000
008FFE0
3FA0000
3FA0002
3B8FFEA
000FFF8
0000000
34EFFFE
39A0000
3C6FFE2
3B40000
38A0000
3FCFFD6
3FE0000
0000000
3FA0000
3DE0000
3F60000
3FA0000
000FFF0
0000000
3FE0000
0000000
3FCFFEC
3DE0000
000FFD0
0000000
000001C
3F80000
03E0000
0000000
3FC0000
3A40000
0000000
3FA0000
0000000
3940000
3EC0000
3CE0002
0000000
00C0000
00A0000
0000000
3A80000
3A00000
3720000
362FFF6
3EE0004
3FC0000
0000000
3FCFFF6
3F6FFF2
3E40000
0000000
0000000
000FFFC
0520000
03E0000
01E0000
3F20000
39E0000
3EA0000
3FE0002
376FFFE
3B8FFDA
002FFFC
0000000
0540000
03A0000
0200000
00C0000
0000000
0000000
3D80000
388FFB4
0000000
3F8FFFC
3F80000
000FFF4
0040000
0000000
0040002
0140002
0060012
0560000
0160000
00E0000
3E60000
3C2FFFA
000FFFE
3F20020
0000000
3E20000
00AFFFA
022FFCA
0400000
02E0000
04C0000
0120000
0000000
0000000
0000000
000FFF2
0060000
3E00000
000000E
000FFFC
0220004
3D80000
0000008
0060000
0000000
000000C
0000000
0340000
0040000
3F4FFF8
39C0000
3B2000A
3DA0000
000FFFA
014FFFE
0020000
0100000
0240000
0000000
3AA0000
3C80000
3800000
3F40000
006FFC2
0260000
0000000
0220002
000FFFC
0220000
0000000
3FC0000
0000000
000FFFE
00C0000
0300000
000FFF8
00A0000
3F6FFFE
3ECFFF8
38C0032
0000000
0000000
0000000
0000000
0000000
000FFFE
3FA0000
0000000
0060000
38C0000
3DA0000
0000000
012000E
3FC0000
00C000A
000FFFA
0160000
000FFEC
00EFFF2
00E0000
0000038
00E0004
028FFD6
0000000
0000000
0000000
3DAFFE8
3CE0034
3FE0000
0000000
0020000
0000000
000FFC2
000FFBC
0000000
0000000
3FE0000
3BE0000
3B40000
0000000
000001C
3EE0002
0000000
3FAFFD0
3FEFFDC
3FAFFFE
0000002
0000000
0000000
0000000
0000000
002FFFE
0000000
0000000
3F20000
0000000
0000000
0000000
0080000
0000000
000FFDA
0080000
000FFB8
0000000
0000000
35EFFF4
3B00000
0000000
0000028
0000000
0020000
3F8FFB8
3FE0000
3F00000
3FC0002
0000000
0000000
000FFF8
0020000
0000000
0000000
3EA0000
3ECFFEC
000FFE4
3F40000
0000000
000FFE6
3FE0000
3FCFFC2
0000000
3FE0000
0020000
0000000
378FFF4
3C80000
0000000
0000000
0040000
0080008
3F00000
0020000
00A0000
0040000
0040000
0000000
0000038
000FFE8
3C00000
3F20000
0000004
3660000
000FFAC
0000000
004FFE0
0000000
0000000
0000000
0160000
0240000
00C0000
0000000
398FFF2
0000000
0000000
0000000
070FFF2
012FF90
3D60002
0000004
0000000
0000000
0000000
0000000
3F60000
3EE0000
0000000
0000000
0000006
0000000
000FFFE
0000000
028FFFC
00CFFC4
0000000
04C0000
0360000
0060000
0000000
0000000
3DAFFF6
0000000
0000008
0000000
088FFD2
0000000
0000000
00E0038
0020000
002002A
0000000
0000000
0000000
0020000
0000004
0080000
0080000
0000000
0040000
004000A
0000000
000FFAA
3FE0000
0320000
0000000
0000000
0000000
0000000
0000000
0000000
0000000
0000000
0000000
000000A
0500008
0760016
0000014
00A0000
00E0000
0000000
0000000
000002C
3E20000
0000000
0100000
0000050
0000000
0180010
0480022
0040000
0000000
0000006
0000000
3FC0000
3FA0000
0000000
3E8FFE6
0000000
0000022
0000000
0000002
3EE0014
0000002
0020000
3D80000
0000000
0000000
3FE0044
3EC0000
000000C
0000000
3B8FFF8
0000000
0100000
0000002
002000A
0000056
0000000
3FE0000
0000004
0000000
0000000
000FFE2
0000000
0000000
010FFFE
0000004
0000000
0000000
3FE0000
0020000
00EFFF8
000FFE2
0000000
0000000
0000000
3E60000
3F6FFFA
000FFF6
000FFDE
0020000
000FFFA
0460060
0000074
0000000
0000000
0000000
00E0000
000FFFE
3FE0000
0000000
0000000
0000000
0000000
0000000
000FFCA
3B6FF8E
0000000
3FE0000
0000000
3ECFFEE
000FFFC
006FFBA
012FFFC
000FFF8
000FFF8
002FFFE
0000000
3F6FFF6
000FFF6
0000004
3E8FF9A
000FF6A
000FFF6
3F00000
0000000
3F8FFE4
0000000
0000000
0000010
03E0000
3D20000
01E0000
000FFF4
3BC0008
0000008
0000000
000FFD4
000FFEE
0000000
0260012
0000026
000001A
01EFFFE
00EFFF8
3F8FFF4
000FFDA
3FE0000
0000000
012FFC2
0080000
010FFDA
0000000
0000000
0000000
0000000
0000000
0000014
0000000
000FFC2
000FFF2
0000000
38A0006
000000A
0000018
0000040
0000000
000FFFC
0000000
008002E
042001E
072FFFC
000000C
000FFF6
0000040
0000008
0000000
000FFD4
000FFF0
0000000
0000000
0000006
0000004
0000000
0000000
0000000
3ECFFFC
0000000
0000010
3F0FFFC
0000018
0000000
000000A
0000000
03E0000
0000002
0000004
040FFD8
030FF96
0000004
0000000
0000000
0000020
004FFCE
3E40000
000FFFE
0000002
0000000
0000000
0000000
0000000
0000000
0000000
000FFEC
0000008
000000A
000000C
3EE000A
0000000
0000000
000FFE4
0260000
000FFFC
000FFF6
0060004
03A0000
000FFF8
000000E
000FFAC
0000000
0000000
000FFFA
0000000
0000002
0000000
000FFFE
0000000
0000014
000000C
0000000
000FFF2
00C0000
0000004
0000068
0000002
3F60008
0000000
0000000
000FFAA
01C0000
0000002
000FFFC
000FF68
000FF92
000FFA8
000FFFE
000FF92
3D00000
000000C
0000000
000FFFC
0020000
000FFEC
000FFEE
0000008
0000004
0000000
0000000
0000000
0000000
0000010
0000006
0000000
3E20016
0000000
0000000
0000000
0000000
0000000
000FFDC
000FFF8
0000000
000FF6C
0000000
0000000
0000010
0000000
0000008
0040000
00EFFFA
000FFF8
3FA0000
000FFFE
0000010
000000C
000000E
006FFEE
0000000
000001A
0000000
3EE0000
3F60004
0000006
0000000
0060000
0000000
0000000
0000002
3FA0000
0000000
0040004
0000004
0000000
3E60004
0000000
0000028
0000016
006FFF8
0000002
000FFEE
0000000
0000000
0000000
0000000
00E0000
00A0000
0020000
0000000
3FE0000
0000000
0000004
0000000
0000012
000FFF2
0000000
0000000
0000000
0000002
0000008
000000A
0000004
0000052
0000004
0000000
0000016
0000000
0000008
3FEFFB6
0000000
000000E
0000006
0000000
0000000
01A0000
01C002A
01C0006
0000000
0000000
0000000
0000000
03E0000
0060000
0140014
000FFFC
000FFFC
0000000
00E0006
0000000
0000006
0000054
0000026
000000C
000FFFA
000FFFC
000FFFE
3CAFFFC
000FFC6
0000000
000001E
0000000
0000000
01C007A
01C0002
01E0020
0060000
00C0028
0000000
0000000
01A0000
02AFFFA
0000068
000005A
3FC0000
0000000
000FF9C
0000008
3A00020
3FC0058
0000000
0000008
0000000
0000000
0000000
0000000
000FFF8
0000000
0000000
000001E
0000000
00C0002
022000E
0000000
0000018
0000008
0000000
004FFFE
05A0000
034FFC6
3E6003E
0000010
0000000
000FFD2
0000000
3F60000
0000004
0000024
3F8FFDC
000FFE2
000FFBA
0000000
000FFAE
0000000
0000000
0000000
0000000
000000A
0000000
0000000
0260000
0000000
0000000
002FFFC
0000000
000FFF8
0000002
0000000
3F40074
000002C
3D60006
0000000
0000000
0000000
000FFEC
000FFFC
000FFAC
3EA0000
000000A
0000000
000FFEC
0000002
3D00000
0000000
0000000
0000006
0420000
0080002
0000000
000FFF2
000FFFC
03A0000
0000000
0000000
0040030
0000000
000004C
3CC0004
3FE0004
000FFFA
3C60008
3C20008
0000000
3E20000
000FFB0
0000000
0000000
3FE0000
0000000
0000002
3A4FFF6
3BCFFFC
0000000
0000000
0080000
00C0000
0000012
3ECFFD0
000FFFE
0000000
0000000
0000058
000002A
0000000
0000000
0000000
0000000
0000000
0000000
3B8FFB8
3FA0030
0000024
0000000
000FFEE
000000E
0000000
0000000
0000000
35EFFF4
38A0000
000FFFC
0000000
000002E
0000000
000FFF8
000FFFA
000FFF4
000FFFE
000004C
0000038
0000062
000FFE8
000FFF6
000FFF8
3FE0002
0000000
000FFE2
3E00000
3D2FFFA
000FFF4
0000000
0000000
0000000
000001C
000000A
3FA0000
3F60000
3FCFFFC
0000000
0000000
0000000
000FFFC
3C0FFFC
3C80000
000FFB4
0000000
0000062
000004A
000004A
000FFFE
000FFCE
000FFF6
000000E
000FFF0
002FFFC
000FFFC
3D80000
3FE0000
3C40002
3C00002
0000022
000004C
0000000
398FFF6
3F40000
3780000
38C0000
3BC0000
000FFFC
3880000
3F0FFC4
372FFFA
3E8FFEE
000FFCE
0000000
0000006
0000000
0000000
0000008
0000026
0000000
0000000
0000000
000FFF6
0000000
0000000
3C8000A
39C0000
000FFFC
0000000
0000000
3F40000
3F8FFDA
3720000
3F40000
000FFF8
000FFF8
0000002
33A0000
36EFFC6
3E80000
0000000
0000040
000002A
0000000
0000000
0000000
000FFFA
0000010
000FFCC
000FFEE
3F4FF8C
0000000
000FFF6
0000000
0000002
3B40002
000003A
000000E
3BA0002
0000000
370000C
0000004
3C80000
3E8FFFE
36A0002
3560000
0000000
3EA0000
000FFF2
0000008
000000C
0000000
0000000
0000000
0000000
3E60000
0000000
000FFFC
000FFFE
3E40000
000FFFE
0000000
000000E
0000008
000003A
0000000
3C2FFFE
3A8FFF4
39A0000
3F40004
38E0004
3C00000
36E0000
3700000
3B60002
3E40000
000FFFC
0000014
000FFFE
0020000
0000012
0000010
0000006
000FFF6
000FFF8
0000020
0000002
3EE0000
3FA0000
000000E
000000E
0000000
0000000
000FFFE
3FEFFC6
3CE0000
000FFF4
342FFD8
3FC0000
0000000
000001E
3FA0000
0000000
0000000
0000000
0000044
0000014
0000000
0000004
0000000
0000000
0000000
000FFFA
0000000
0000000
000FFF2
3F80000
0000000
000FFE2
000FFE2
000000A
000FFD2
000FFC2
0000002
3D6FFD6
3F40000
3FC0000
0000010
0000018
0000040
0000028
000FFD0
000FFF6
0000006
0020016
0000002
0000000
0000000
000FFC0
000FFFA
0000000
0000000
0020000
000FFF8
000FFFE
0000000
0000000
000FFEE
0000004
000FFFE
000FFA0
0000000
000FFFE
3A40000
000FFFE
0000000
000000E
3D60000
000000E
0020000
00A0002
0520010
0000008
0000000
000FFF4
000FF94
0000000
000FFAE
0000000
0000000
000FFFE
000FFEA
000FFC8
042FFFE
000FFE6
000FFD8
000005E
000FFEA
000FFC2
0000000
000FFD8
000FFF4
000001E
3FA0000
0000002
3940038
3DC0072
002000A
006FFD2
01AFFFE
00C0000
0020010
0000000
000FFFE
0000000
000FFC4
000FFF4
0000000
0000000
000FFFC
000FFF6
0000004
0080004
000FFC2
020005E
0000000
0000000
0000000
000FFFC
0000000
0000000
3FA0000
3F0000C
3B4004C
3F80002
0000034
006FFFE
0100000
000FFE6
000FFF2
0000000
000FFC4
000FFC2
0000000
000FFF8
000FFCA
0000000
000FFC6
000FFDA
0000000
0000014
000FFE8
0000006
0000000
0000000
0000000
0000000
0000000
000FFFC
0000012
0000000
0000024
000FFF4
0000004
000FFFC
000001C
000FFF4
000FFC6
0000000
0000000
0000000
000FFF6
0000000
0000000
0000000
0000000
0000000
0000000
000FFFE
000FFD2
0000000
0000000
000FFBC
000FFFE
35CFFE8
3E00000
3F80000
0000000
0000000
3D2002E
382FFF0
0020000
0000000
0000000
000FFE8
0000000
0000022
0000000
0000000
0000000
000000C
0260014
0000000
0000000
0000000
0000010
000FFFA
0000000
0000000
0000000
000FFF8
000FFD4
3F8FFDE
000FFF6
000FFFE
000FFF8
000FFF6
0000022
000FFF8
004000E
0000032
026FFC4
000FFEE
000FFEE
0000000
3A20000
0000000
000FFF6
000FF9E
030FFE8
07AFFEA
000FFE8
000FFF4
000000A
014FFE0
000006C
0000006
0000018
002004A
002FFCA
0000000
000000A
0000000
3FE0000
0020000
0000014
0120000
3E80000
000000C
0020000
0100018
0240020
3DE0000
3EE0002
3FE0002
018FF74
060FF32
000FF60
000FF6E
012FFE6
3F00012
3F8FFF0
3F80000
000000E
0040016
3F40006
3FE0000
0000000
0000000
0000000
0000000
0000000
0000000
0000000
3F40000
3DA0026
00E0004
000FFE8
0140000
00E0058
0740038
0500034
004000A
3FE0028
000FFFE
00EFFE4
0040000
0000000
006002E
0000014
0100050
3FE0008
01EFFF8
00E0000
3D20000
0000000
0000000
0000000
0000000
0000000
0000000
0000000
0000000
00C0038
3F4000E
3FE0000
3FE0092
0000036
05C0000
0000000
0020000
3FE0000
0000000
3F2FFB2
000FFF0
000FFB0
3FCFFF2
3FE0000
0000018
3FC007E
3FA000E
006FFF8
004FFF2
0080000
0000000
0000000
0000000
0000000
0000000
3F60000
3E2001C
3FC0000
3FE0052
3F40000
3EEFFEE
3EAFFEC
3FC0000
3FA0000
0060000
0000000
006FFF6
00AFFEA
002FFF6
0000000
008FFD0
3FAFFCA
3FEFFF4
3D0FFAE
3E00002
3FEFFFE
008FFFE
0020002
0000000
000FFEC
0000000
0000000
0000000
0000000
000001C
0000000
0000000
0000000
3A80000
3FE0000
0220000
3FC0002
0000016
3FA0006
3F80000
0000000
3F4FFE6
3BAFFCA
3EA0000
0000000
0000000
3FAFF94
3F4FFE0
3FEFFE6
0340000
0000000
0000000
0000000
000FFE4
0000000
3F00000
3F60000
3E80000
0440038
3EA0000
0260000
3F20000
3FA0000
0020002
3FC000A
3EA0024
008002A
3FE000C
3F6000C
0000000
3E6FFFE
3FEFFEE
3F00000
3F80000
3FC0000
3FCFFE0
0040000
0660000
3F80000
0000000
000FFFE
000FFBC
3FA0000
3DCFFFC
3FE0000
3D60050
0420000
000000A
0000000
0000000
3B60000
3E00000
3E40000
000002C
3D40002
3B20058
3C40000
0160000
0000000
3F4FFFC
000FFF2
3E0FFE4
3E40000
0000000
03E0000
0000000
0000000
0000000
000FFF6
000FFFE
01E0000
0000000
000001A
0000000
0260002
0000002
0540000
0000000
3FE003C
00E0000
0020004
0000002
0000000
3F60000
3C60000
0000016
000000E
0000000
000FFFE
3F4FFA4
0080000
0000034
000FFFC
0420000
000FFF8
0020000
0000000
0000000
0000000
0000000
01C0000
3EC0000
0360002
0000000
0000000
00E0000
000001E
0000000
0240020
0000000
0100000
0020004
0100000
0000000
000FFF8
3FE0000
028FFF4
3F80000
3E20000
0280000
0000000
00A000E
3FC0000
0000006
0000000
0000004
0000000
0100000
0000000
3FC0000
0080012
02E0046
0100004
006007E
000002E
000FFFC
3FC0028
0020000
3FC0000
0060000
0000000
0000034
010FFEA
3F8FF9E
3FEFFFE
3F2FFF0
3CAFFEC
3FE004C
3FC0014
0000000
3FA0010
3FC0006
0000000
0000000
0000000
0000000
3D40000
3CE0000
01C0016
3F8004E
3CE0000
0020000
0020000
0300000
0000000
0000000
000FFF8
000005A
0040004
3F80060
0000000
00CFFDE
0000000
0040000
3F2000A
3EC004E
3F80026
00A0000
000000A
3FE000C
000002A
0000012
0020000
0000002
3F80000
3E6FFE4
0080000
3FC0000
0000038
0020004
0080000
000FFBE
000FFBC
3F6FF6C
000FFE2
0000000
00E0000
000FFFC
0380004
3FCFFFE
3C4FFEA
038FFFE
01A0000
3FA0034
3F60000
0300040
0000024
3FC0004
0000006
000001E
0000006
0000000
3C40000
3FA0000
3FE0002
3F6FFF8
3FC000C
00C0000
3FEFFAC
0000000
0000000
0000002
00C0000
3EC0000
0140000
000FFF0
0380000
00E0000
0040034
040FFFE
3FE0000
3EC0044
3FE0024
0000006
3C60008
3F40038
000000A
000000A
3DC0000
0000000
000FFDC
0000000
000000E
000FFFE
002FFD8
000FFC2
004000A
00E0008
0000044
00E004E
0020018
3FA002A
0000000
3F40000
0300000
3FE0000
008FFFC
010FFFA
3C40000
3F40000
000FFFE
0000000
000001A
3C40034
0000000
000FFFC
000FFD6
0000000
0000008
0000046
0000000
3FE0000
0540000
3F4FFFC
0000000
0080016
0000008
01C0018
0020016
3F00000
0020000
3FAFFEE
0000000
3FC0002
0000000
0040000
3CA0000
000000E
038FFFC
000FFFA
004FFF0
3F80004
0000012
000FFE2
3FE000A
0000034
3F80034
0000036
0000000
0120000
0020000
3FC0000
010FFBC
0060006
0000000
0020000
0000008
3DC0002
3CE0000
0000000
0160000
0000004
0000000
018000C
0000000
3F40000
000FFFA
0000000
006000A
3FA0000
3F20000
000FFFE
3FCFFA6
000FFF2
3F60000
0000000
0000000
0360000
00A0000
3CA0000
0000000
000FFE6
00C0000
02E0002
0000000
0000000
00E0000
0000002
0040000
0000000
3E60000
0020000
3F4000E
3F80010
0000018
3FC0000
0000002
3F40000
3FE0000
0000000
0000000
3FE0000
3F20000
3FE0020
3F8000C
0000000
0000000
0000000
3FE0000
0000008
006FFFE
3FEFFF0
0000000
3E80034
3B20018
3FC0000
0000002
0000000
3F8003C
3EA0000
0020008
3F6000A
0900000
3FCFFF4
0000000
3FA000C
000002A
000000E
000000E
3FE0028
3DA0008
3DE0002
3CEFFFA
008FFC6
0000000
3F80004
0020000
0000000
0000002
02C0002
0000012
3F20004
3E00000
3F00020
0020010
3FE0004
3F00010
0000000
0020000
3FE0020
00A0040
3FE0000
000FFFE
3DE0010
0000000
3FC0040
000000E
3FE0000
3D40008
000003E
3E2FFFA
0000000
0000000
3D60000
0180022
01A0000
0100074
0020050
0360050
3D40000
3E60000
000FFF8
0100000
00EFFD8
002FFF2
3E4FFFE
3B4FFFE
3FC0020
002FFFE
01A0000
3D60000
3FA0076
3FE0024
000000A
0000002
3FA0000
3E40006
3FC0006
3AC0000
00CFFF8
0000000
3E8FFFC
0000000
0000000
0080000
0080000
00A0020
000004A
3EC0000
000FFEC
3DC0000
000FFFA
000FF9A
000FFE0
0000000
3FE005C
0480000
0040000
3F00034
0000048
0000000
0000002
0000000
0000002
3FC0000
3FE0000
3FAFFF6
0000000
3FE0000
3BAFFF2
0060000
0000000
01E0004
006000E
3FE000C
3F60022
000FFFA
0000000
000FFCE
3F6FF94
00EFFAE
010FFEA
3F40000
3B20000
0420000
0000000
3F6FFFE
000000E
0000000
0000000
3F40000
0000000
0000000
0000022
0040006
0020000
3FE0000
3AEFFF8
014FFFE
046FFF8
0000000
0060004
0060000
3E20000
0000000
3EAFFC6
3E6FFC0
3F8FFA2
3F4FF88
000FFF2
3CA0024
3EC000E
0220000
0060000
0040000
0000000
0000000
0000000
0000000
0000000
3C2FFFE
0000000
0000000
000FFF8
3F40000
3F00000
0020000
00C0026
03A0000
00E0008
000000C
3CA0000
000FFFE
3F6FFF6
3F40000
3B8FFB4
0220000
00AFFF8
3BC0000
3EE000C
0320000
3E20000
3B60042
0000040
0000000
0000000
0000004
0020000
3CC001E
0020002
0000000
0000000
0380018
0100000
0000006
00E0000
000FFDA
004FFEE
01A0000
3E6FFFE
3E8FFFE
3FA0000
0000000
3F60000
000FFA4
00EFFEC
002FFEC
3FE000E
000FFCC
0020000
0020000
0040000
000FFFE
0000000
000000E
0180000
3F0FFF6
3AA0000
0000000
0020000
0440006
0860000
00E0000
068FFE2
0000000
0040000
3FC0000
382FFCE
3D0FFF6
3EE0000
3FE0000
3FEFFB8
000FFE8
01CFFF4
07CFFFE
3FE000E
0000000
3FE0002
0000000
3DE0006
000FFF8
0000000
0000010
0000000
3D40000
3DEFFEE
3A20000
0760008
03A0010
00C0000
0000000
0080000
0000000
3DE0000
3D20000
3B20000
000FFFC
3F8FFFC
3B20000
0000000
0260000
0120000
3F80000
3F80002
0880000
3FE0000
36EFFF4
3FC0000
396FFFA
3FAFFF8
0100000
3EC0026
3EC0020
0020004
00E000C
03A0038
0120006
00A0000
00E0000
0020000
3FE0000
3F8FFFC
3FA0000
3F60000
3940000
3E6FFF4
3FC0000
3F80000
3F60000
0000012
0000008
3F80004
3FE0048
0000010
000FFFC
0340000
0000000
0000028
0000000
0000000
0000000
0000000
0000002
0000000
3A0FFFC
01C0000
3FA0000
3CE0000
0000002
00E000C
0180012
3FC0002
3980000
3EC000E
0700012
00C0008
01A0002
3FC0008
3FEFFF6
0000000
0060000
0180000
0000000
0000000
0000000
0000000
3F60000
0000000
0000000
3C60000
0180000
0060000
3C6000A
018001C
3FC0004
3F80000
3F20000
3BC0000
00A0000
0060000
0080000
0360000
0340000
3F20000
3FC0000
00A0004
000000E
0000000
00C0000
0080000
3E40000
0000000
0000000
3F6000C
0000000
0000000
0000000
3D80000
0000002
0000000
026000A
0000014
3FA000A
01E0000
0000000
0000000
3EA0000
0000000
0240000
3FA0002
3CA0000
0020000
02E0000
0020002
0200008
0600010
0000000
0040000
000001E
0000002
0000000
0000000
0000000
0000000
3FE0000
0000000
0600000
0060002
0020002
000000A
0120000
0240000
0000000
0000000
0000000
3C00000
3B20002
3BC0000
3FA0000
0000000
3FE0000
03A0000
00A0004
0080004
0540002
0580002
00A0000
3D60000
0000000
0000000
0000000
0000000
3F20000
0020000
3FE0000
0020002
3DE0002
0000000
0000000
3F40000
3F80000
00A0004
03C0000
0040000
3EE0000
3D00000
0000000
0000026
3F60000
0000000
3FC0000
000000E
0540006
0000000
0360008
3C60000
0000000
0000000
0000000
0000000
0000000
0000000
0000000
3FE0002
3F60000
3FE0000
0000000
0000000
0000000
0000000
0000000
000FFFE
0080000
0040000
0100000
0000000
0000004
3E80000
3D40000
000001A
0000002
0000002
000000A
0000000
3B80000
0000000
0000000
0000000
00C0000
0000000
0040000
3FE0000
3F80000
3EE0000
3F40000
3E00000
0000000
3CC0000
0000000
3FA0000
0000000
0000000
00C0000
0000000
0000000
37AFFAC
3F8FFF8
3F20000
0000002
0000000
0000000
0000000
3B20008
000000A
0000000
0060000
0040000
00C0000
0000000
0000000
0000000
3F8FFFE
000FFBA
0000000
0000000
00E0000
01E0000
0000000
03AFFE4
0100000
010FFFA
0160000
0000000
3BCFFF4
000FFF4
3F6FFF6
3FE0000
0000000
0000000
3F20004
0000030
0000000
0000000
0080000
0020000
0040000
0480002
3EC0000
3EA0000
3F2FFFA
000FF9A
3FEFFD6
0000000
3D2FFEE
0000000
01AFFEA
0200000
000FFCA
0000000
0000000
3E20004
000FFF0
008FF98
3D2FFFC
0000000
03A0000
3FA0008
3F20000
0000000
0000000
0000000
0000000
0000000
0000000
0000000
3F00000
0000000
3FCFFFE
006FF9C
000FFC0
3E60000
3E2FFBC
004FFD2
3F0FFC4
3D00000
3EE0000
0000000
392FFFC
3B00000
3FEFFC8
00E0000
3F2FFFC
0000000
3FE0018
0040000
0000000
000FFF2
0000000
0000000
0000000
0000000
0000000
0000000
3F80000
0000000
3FE0000
0060000
000FFEA
000FFEE
0040000
0320000
3F8FFD4
0020002
3A00000
3CEFFF6
3E40000
0020000
0000000
04EFFF8
000FFEC
0000000
3FA0028
0060000
0000000
3C8FFEC
3CAFFD0
0000000
0000000
0000000
0200000
0000002
3FA0000
0320000
000FFD0
00CFFC2
0020002
000FFEE
3F40000
0020000
0040002
3CE0000
0000000
0020000
00C0000
01E000C
048FFD2
0120000
00AFFFA
0540002
0100000
0000000
0020000
000FFF6
3F40000
0000000
00A0000
3FE0000
0020000
3F00000
3EE0000
0000000
000FFFE
01AFFF2
0000006
3F80000
0040000
0120004
3CE0000
0000016
0000000
3CE0000
3FE0000
0060002
0000000
3FAFFFC
000FFEE
000FFF8
3F8FFF8
0000000
3A20038
3AE0000
000FFC2
0000000
000FFF4
3E60000
0000000
01E0000
038FF46
0000000
3F4FFCA
002FFEC
030000C
3E2FFE2
0000000
0000000
3B20000
000000E
000000A
0000000
3FA0000
0000004
3F80000
3CAFFFE
000FFDE
000FFF0
0000000
0000030
3F20000
3DA0000
0240000
002FFFC
3DAFFEE
3E40000
0000000
0000000
020FF88
0060000
3CAFF7A
3FE0000
0020000
00CFFF0
0000000
3FA0000
0000000
0000000
0020000
01A0004
0040006
3FE0002
0000028
3FC0000
0000000
0100000
0000000
0000000
3A8004C
0000028
02A0000
3F6FFEE
000FFF2
000FFFE
0020000
0080000
05CFF9E
000FFA0
000FFF2
04A0012
0000000
0000000
3D40000
0060020
0000000
3F00000
0060000
0120002
0660008
3F80008
3FE000C
0000000
0000000
3FA0002
0000000
02A0018
0000050
000000A
3FE0000
0020000
008FFFE
3FE0000
02E0022
0060000
000FF70
0020000
000FFBA
0480016
00C0004
0000000
0000000
3F20000
3FA0014
3EE0004
000000E
01E0000
0180028
0320012
3FC0010
00E0014
3E00012
3FCFFEE
000001E
3F8000A
3E20006
0000000
000FFFE
00C0004
0440000
000006E
0020056
0000000
022FFA4
000FFE0
000FFFE
3EA0000
010FFE6
0000000
3EE0000
3F00000
0040006
0060000
3FE0006
3F40010
0000024
0060000
3FE0000
00A0008
0080000
000FFF2
01E0000
3FC0000
3FC0000
0440000
3FC0000
0000000
0480000
0060064
0000000
0120000
3FC0000
0040002
3FE0000
0160006
00A0008
0120008
0080000
3FC0000
00C004E
0220000
3FC0004
000001A
0000000
3FC0000
0000000
3C60000
00A0000
000FFEA
0440000
0000000
0000000
0000000
0000000
01C0000
000002A
000001A
03C000A
3F60000
3E6FF80
0040000
3AC0000
016000E
0000002
0000000
3F80026
3D00000
3C40000
0000000
3CC000E
0000000
0000018
3F60000
0020000
3C60000
002000C
3C20000
00A0000
0000000
3BA0000
0000004
02E001A
0000008
0000008
0060020
00A0000
0000000
000FF9A
0040000
3BA0002
000FFFE
000FFE4
0000000
0000000
000FFFA
000FFF0
000FFEE
000FFFC
0000000
0000000
0000000
014002A
000000E
3C60032
3C00014
3FA0000
3FA0014
3BC0000
0000000
000003A
3FA0006
00C0000
0000000
0000000
0380000
0000000
0160000
3800002
0000000
0020000
000FFFE
000FFFE
000FFFC
0080000
3FE0000
0000000
00E0000
01E0008
0160000
0020026
0020000
3FE0016
00C0000
02A0000
0000000
0000000
3EC0000
01C000A
0000000
000002A
0000078
0000042
0000000
0020000
3F8000C
3FA001A
0000000
02E0000
0400000
0000000
3FC0000
0000000
0000000
0000000
3FE0010
0140000
0340020
0000000
0060000
3AE0016
0000000
0000000
3FC0000
3BA0000
3FA0000
0000000
0000000
0000000
3FC0000
00E0000
0000000
0000000
0000016
00A0018
3FCFFE2
3FE0000
000FFFA
0600000
3FA0000
00EFFFC
0080000
0000000
02C0000
01C0008
0180000
0100000
0140000
37C001C
3FC0000
0100000
0000000
3E20000
3FC0000
000000A
3F60018
0000026
0000000
0120000
0000000
00E0042
3A00012
01A000E
3FA0000
01C0000
0000000
0000000
3FE0000
0000000
0000000
02A0000
0180000
0000000
0280000
02E0000
0120000
0060004
3AA0014
05C0000
0020000
3FA0000
0000000
0000000
3FC0000
3F20000
3F40000
3F20004
0000000
0000018
3B6007A
0000014
0680000
0020000
0000000
0000000
3F8FFFE
3FC0000
0020000
000000C
3FE0000
0000000
01A0000
03CFFFE
084FFFE
392000C
3E8004A
0860000
0040004
3FA0000
0000000
0040000
0000000
00A0000
3F20000
3C80000
04C0000
0000000
3CA0016
3FE0010
03A0000
000FFFE
000FFDA
0000000
3DCFFFE
3E60000
3F00000
3FA0000
3DE0000
0020000
01A0000
05C0000
00EFFFE
3A80010
3F00008
0240000
02E0000
3C60000
3E80000
3CE0002
3FC0000
3F20000
0000000
0000000
00C0000
3F40000
3CA0000
3A80000
0060000
3FE0000
000FFEE
3ECFFEC
3FEFFF4
000FFEC
00AFFE8
3FEFFF6
3ECFFFA
3FCFFFC
000FFF2
0440000
000FFF8
3FE0000
3E60000
0020000
0400000
0000000
3FE0012
01A0000
0000010
000FFFA
000FFE0
000FFCA
000FFBC
000FFDA
0000004
000FFFE
3E60040
000000A
0040072
000FFF6
00A0000
0020000
0000002
004000A
006FFF2
004FFAA
0000000
0000058
002000A
006001A
000FFFE
000FF82
0000000
0000000
0000000
0000000
0000000
0000000
000FFCE
0000000
000FFF8
0000002
0000000
0000026
004001E
0000006
0100000
024FFFE
000FFF6
002FFB4
000FFB4
000FFBE
004FFFC
00AFFFE
000004C
0060000
0000000
0000000
03C0002
000FFDC
000FFE2
0000000
0000000
00A0000
0000000
0000000
00E0008
000FFCE
0000000
0000000
0000000
0000002
000FFF2
0020000
00A0068
0000040
0000022
000FFDA
000FFC2
0000000
0000030
0000000
0000006
000FFFA
0000026
0000000
006FFCE
0000002
010FFFC
0460000
0000000
0000000
0000000
0000010
000FFFE
0000028
000000C
0000000
00CFFF8
000FF92
0000000
0000002
0000000
0000006
000FFD6
000FFD2
000FF62
0000000
000FFD8
3FA000E
0000000
0000060
0000000
000FFF2
000FFF6
0080004
0000000
0000000
0000000
0000000
0000000
0000000
0000000
0000000
0000022
000FFFA
0000002
000FFCE
000FFF8
0000000
000FFB0
0000000
0000000
0000000
000FFCC
0000000
000FFF6
0000000
0000000
0000000
000FFD8
000FFF0
000FFE4
016FFFE
0620000
00EFFFC
0000014
0000000
0000000
0000000
0000012
000000A
0000000
0000006
0000004
000FFEC
0000000
000001A
0000018
0000000
000FFFC
0000002
000FFEA
000FFF2
0000002
000FFFC
0000000
0000000
0000000
0000000
0000000
044FFFE
0000000
000FFFE
0000000
000FFE0
0000002
0000000
000000C
0000026
0000000
000001A
0000000
000FFFE
0000000
000000E
0000006
000FFFC
000FFF4
0000000
0380000
0000000
0000000
0000002
000FFFE
000FFFC
0000000
000001A
000000C
022FFFE
0000000
0000000
00C0000
0000000
0000000
0000000
0000000
0000000
0000008
0000026
0000002
0000000
0000000
000000C
000FFFA
000FFFA
000FFFA
0000000
3FE0000
000FFD2
0000006
0000000
0000008
000FFF4
000FFE4
0000000
0000038
0000042
0000000
02EFFE0
00CFFF8
0000000
0000000
000001A
000FFFA
0000004
000000A
0000008
0000000
000FFF0
0000022
0000000
0000000
000000C
0000000
0000000
000FFFE
000FFFA
0000028
000008E
3F6000A
0000000
002000A
0000000
0000000
00E0064
00A0000
0020000
00C0000
0000000
000FFFE
0000000
0000000
0000000
0000014
0000008
0000000
3FEFFF6
0000000
0000000
0000000
0000000
3F20000
000FFFA
0000000
3F80000
0000028
0000054
0000014
0000038
000FFFE
0000000
0000000
0040058
03A0024
0000000
0000000
0000000
0000000
000FFFE
0000002
000000E
0000000
0000002
000FFFE
3BA0000
0000000
0000000
0000000
0000000
000FFFC
0000000
000FFB0
0000000
000000A
0000000
0000002
0080000
0080000
01CFFC8
0000000
022000E
0000002
0000000
0000000
0000000
0000000
0000028
0000000
3F60000
0000000
0000000
3DE0000
3FA0000
000FFFA
0000000
0000000
000FFBA
000FFFE
000002C
000FFFA
000FFFA
0000026
0000000
0000000
0000006
004FFCE
002FFC4
000FFFA
0000000
0000002
032FFEC
0000000
0060000
0000014
000FFFC
0000002
0000000
0000002
0000000
3D60000
3B60018
0000000
0000000
002FFF4
0000000
0000000
000007C
000003A
0000044
000FFFC
0000000
000FFEC
000FFF2
000FFCA
000FFD8
0000000
000FFC6
0000004
0000000
0000000
0000000
0000020
000FFEE
3E4FFF6
000FFFE
0000000
3BE0000
0000000
382FFFE
3C2FFE0
000FFCA
0000002
0060004
0000028
0000000
01C0000
03E0066
0000006
0040000
002FFD2
000FFDA
000FFE4
000FFC0
0000000
00EFFEE
0000000
0000000
0000000
0000000
3FE0000
3FAFFFC
000FFFE
3FAFFE6
3DEFFE8
36E0000
3C60000
38CFFFE
3E20000
000FFF8
0000000
0080002
0000004
0000024
0020004
000000C
0000014
0020000
01C0002
0420000
0040000
000FFC0
0000000
0000000
0000000
0000046
0000000
000FFE8
0000002
0000000
0000000
3FE0000
3FAFFC6
3B00000
3D6FFA2
3CEFFFC
3FA0010
0000000
000FFC0
00C0010
0000002
0000000
0000010
006000A
0100010
02CFF94
0540006
0020012
0000000
000FFDE
0000000
0000000
0000000
000000C
0000000
0000000
0000004
3FA0000
0000000
0300000
0000000
3F2FFFC
3D0FFB8
3E20000
3EC0014
000FFFE
000FFF0
000003E
000000C
0000000
0040000
0060060
0000002
0000000
0540000
0280002
0000000
004FFF4
000FFB4
0000000
0000000
0000006
0000000
0000000
000FFF6
3FCFF8E
020FF40
038FF92
0000000
000FFFA
3AC0000
3FEFFEA
3FE0004
0000002
000FFDA
3FE0000
000FFE4
000FFEC
000FFFE
004FFFA
000002A
0000000
012FFDC
0000000
000FFFE
000FFD8
3FEFF78
3FAFFFC
3FCFFFA
0000000
000FFEE
0060000
006FFD8
0000000
000FF60
000FFEA
000FF96
39A0000
38CFFF0
000FFD0
0000000
0000000
000FFE2
0000022
0000000
0000000
0000000
0020006
000FFFA
0000028
0000000
0000000
0020000
000FFB6
000FFBC
000FFAC
000FFDC
0000000
000FFBC
000FFEA
0000000
0000000
000FFFC
0000000
000FFC8
3E80000
3BC0000
000FFFE
0000000
000FFEE
0000000
0000000
0000000
0000000
0000000
0000056
0000000
000003E
0000000
0000000
0120022
00E0000
0000000
0000000
000FFFA
0000000
000FFFC
0000000
004000A
0000000
0000000
000FFBE
0000000
3FE0006
3A8FFFE
3FC0000
0000000
0000002
0000000
000FFFA
0000018
000004E
3FC0010
0000000
3BE000E
0000038
3FE0000
0000000
0120006
0020006
000000C
0000000
0000000
0000002
0000030
0000022
0020000
0000000
0000000
0420000
0000006
0000004
3D8002C
0000000
0000000
000000C
0000030
0000000
0000000
000000A
3FE0024
0000000
0000000
0000008
0000000
0000000
00A0002
0000000
0000000
0000000
01EFFFC
0180004
0000000
0000000
0000000
03EFFFE
038FFFE
0000000
0000008
0000010
39A0000
3EEFFFA
000FFFC
3F6FFF4
0000000
0000000
000FFFC
3EE0000
000FFEC
000FFFA
3FE0000
000FFD6
3FEFFE6
0000000
0000000
0000000
0000014
0000004
000FFF6
000000E
0000000
0000012
000FFFA
000FFF8
000FFFA
000FFB6
0000000
000000A
0000032
0000000
3D4FFFE
0000000
0000000
0000000
3FEFFF8
3F2FFF6
3FAFF92
000FFFC
3ECFFC6
3F80000
3A4FF56
3F4FFFE
000FFFE
0000000
0000000
0000000
000FFEA
0000010
0000000
0000000
04A0000
0000000
000FFEA
000FFFE
0000000
0000000
0000000
000005E
000FFFE
0000020
0000000
3F20002
000FFF0
3FE0002
3F8FFDA
0000000
000FFF8
3FEFFFE
3EEFFE0
3FC0002
000FFF8
0000016
0000000
0000000
000FFF2
0000000
0000000
000FFDE
0000000
004FFF8
0040000
0000000
0000006
0000004
0000000
0000044
0000000
0000014
0000000
3DE0000
3FE0002
3FEFFEC
000FFF4
0000000
000FFBE
000FFA2
000FFF6
0000004
0000002
000000C
0000000
000000C
000FFF0
0000000
0000000
000FFF6
0000000
0000000
0000020
3F4000C
0000000
0000050
3F00000
3F8003A
0000016
0000018
000FFFA
0000000
3AC0000
3B4FFF4
3FE0000
0000000
000FFFA
000FFFC
000FFDE
000002C
000000C
3F20000
3FA0000
3FC0002
0000000
3E00010
0000010
006FFE4
0000002
0000000
0000000
000FFFC
0000014
0000026
3FE0006
0000002
0000000
000001C
000FFF2
000FFFC
000FFFC
0140004
024FFF8
000FFFC
000FFFE
3D8FFE6
3C80000
000FFFC
000FFF8
3FAFFB2
000FFEE
000002C
0040006
0000000
0000000
000000A
0000000
0000000
0280000
0140000
0000000
0000000
3F4FFEC
00C0000
3F00000
3CC002A
0080000
000FFFC
002FFFE
0000004
0000000
0000000
0000000
01EFFF8
01A0006
3FE0000
068FFE6
0100000
000002C
0000000
0000000
0000000
0000000
0000000
0000000
0000000
0000000
3FE0000
3FE0000
0000000
3E20000
0000000
3FEFF78
000FFFA
004FFFC
3EE0000
3B60002
3A40008
3EC0000
36C0004
0000000
010FFF6
0000000
02AFFFE
06AFFDC
0000000
00A0000
0000000
0000000
0000000
0000000
0000046
0000000
0000000
0000000
0000002
0000004
0000000
3D8FFFA
3FC0000
3F4FFF6
3B80000
0000000
3F20000
3FEFFFA
3D40000
38E0000
0000000
000FFF4
0000000
3E20000
3ECFFFE
0000000
3FCFFFA
0000000
0080000
000000A
0000000
0000000
0000000
0000000
0000000
0000000
0000000
00C0000
0000000
3FAFFF4
3C6FFE6
3F4FFFE
3D00028
3E8FFFC
000FFF4
3FEFFFA
3FEFFFE
0000000
0000000
000FFC4
0000004
000001A
0000006
0000000
000FFE4
3FC0000
3FE0000
0000000
0000002
0000000
0020000
0000000
0000000
0000000
0080000
0260000
3FEFFF6
000FFF2
3E6FFC0
3F00000
0000004
000FFEE
3FAFFEA
3ECFFE8
000FFFA
002FFFE
0020000
000FFFE
0000002
0000046
0040008
0000000
0000000
0000000
3F80000
0000002
0000000
0000000
0000004
0000000
3F20000
3D80000
0280000
0100000
3FCFF9E
3B20000
38E0000
0000000
3F40000
3FAFFCE
3F6FFF4
38A0000
000FFFC
000FFFE
0000000
3F80000
0000000
3FA006A
0000000
0000000
0000000
0000000
0000000
01E0000
0040000
0000000
0000010
0000000
3EE0000
0000000
0100000
0000000
000FFF2
3FCFFA0
0000000
0100000
0000000
000FFF6
0000000
3E20000
0020000
000FFFE
0000000
0180002
0000000
000000E
0000052
00A0000
0000002
0000000
0000000
01C0000
0140000
000002C
000000E
0000000
3FE0000
0000000
0000000
000FFDE
3F4FFFA
0000000
0000004
000001C
0000000
3C2FF6E
000FFFE
000FFF4
0000000
000FFD4
0000008
06C0000
018FFE8
01E0000
06E00AA
0000018
3FA0000
3FC0000
0000000
0040000
0000000
0000004
0000000
0000000
0000000
0000000
0000000
000FFFE
3DAFFFA
3B20000
000000A
0000016
3F60008
3F2FF88
3FEFFEC
000FFDA
0000000
0360000
0000000
0000000
0560000
0000088
0700012
0000000
3F40000
3FE0000
0000000
0100020
0000000
0000000
0000000
0000000
0000000
0000000
0000000
000FFFE
3B0FF90
3CA0000
0000008
000001E
3F00016
000FF6C
3ECFFF2
3FEFFDC
0080000
3F40000
0540000
0020008
00E0000
000004A
0560014
0000018
0000006
0000000
0000000
0000000
0000010
0000000
0000000
3FE0000
3BA0000
34E0000
3E60000
38AFFA4
39E0000
0000000
3D60000
0000012
3EC0000
3B0FFE0
000FFF8
3FE0000
01E0000
0000000
0080000
0280000
0000000
0000000
03C0062
0060002
0000020
3FA0008
0000012
000FFF8
0000010
0000000
03E0000
3FC0000
3D80000
3FE0000
358FFA0
3DCFF76
3620000
3FE0000
3B20006
0000012
3C80000
000FF84
000000E
0000000
008000E
0000000
018FFF4
0100004
0000000
0000000
0000012
0040000
0000004
3EE0004
0000000
0000000
0000028
0000000
0000000
000FFAC
000FFEE
3ACFFD8
394FFDE
37CFFDE
3ECFFBE
3B0FFF6
0000000
000000A
0000000
000FFF2
0000000
0000000
0280000
0260018
0000000
0000014
0000000
0000000
0000000
0080000
0000048
0000012
000FFF4
0000012
0000036
000004C
0000000
000FFFE
000FFC8
3FE0000
0000000
38CFFDC
3DCFF74
000FFEC
0000068
3E40054
3FA0000
000FFFE
3FEFFFC
0000000
0260014
0040000
0000034
0000008
3F8FFF6
3FAFFF8
0000016
0000000
0000046
0000000
0000000
0000000
0000000
000003A
0000000
0000000
0000000
0000000
3F8FFFE
000FFC8
000FFBC
000FFD2
0000000
3BCFFFC
000FFB4
3A00000
3EC0000
000FFEE
000002E
0000000
0000006
000001A
3F20000
0000000
0000010
000FFFE
0000046
0000000
0000000
000001A
0000000
000003E
3F00004
01C0000
000FFF2
000FFFC
000FFFC
000FFFE
000FF92
0000000
0000000
380FFEE
0000000
0000000
0000000
3F20004
3F60012
0000000
0020000
0000000
020FFBE
000FFEE
000FFF2
000FFFE
0380000
0000044
0000000
0000000
0000000
0000000
3FC0002
0000000
0020000
0000000
0000008
006FFC2
000FF94
016FFE0
0000000
3EAFFFC
0000000
3F4FFFA
0000000
0080006
0380004
0100024
0000000
0000004
0000000
0000000
0000000
0000000
0020000
0240000
0000000
0000000
0000000
0000000
0000000
0000000
0000000
0000000
0000000
0000000
00EFFC6
0060000
000FFFE
0000000
000FFF6
0000000
3F80000
0000006
0080000
0000000
0000000
3FA0000
3FE0000
000FFFC
0000000
0000000
0000000
0000000
0000000
0000000
0000000
0000000
000FFD4
000FFFE
000FFF2
010FFFE
0040000
0020000
0000000
0000000
0000000
000FFF6
000FFFC
0000000
3FAFFFC
0000000
000000E
0000000
0000000
0000000
3FCFFD6
0000000
0000000
000FFF6
0000000
0020000
0000000
000000C
0000000
0000000
0000000
0000000
0040000
0060000
00C0000
0000000
000FFC2
0000000
000FFE4
3FE0000
0000000
3F60000
0000000
0000012
00E0028
0000000
0000038
0000000
0000004
0000000
0000000
0000000
0000000
0000006
0000000
0000008
000FFE0
0000000
0000000
0000000
000001C
00E0000
0060004
0000002
0100000
0000004
0000000
0000000
0000000
3FC0000
3FA0000
0000000
00A0002
000FFE6
0000000
0000000
3F60008
000001E
0000000
0000000
0000000
0000000
0000000
0000010
0000000
0000000
0000000
0000000
0000000
0020042
0000014
000001A
0000004
000FFFC
000FF9C
03CFF70
000FFC0
000FFEC
0000000
3FE0014
0000014
0000000
3FE0002
3E8002E
0000000
000FFFE
0000000
000FFF8
000FFFA
0080000
0000004
03C0002
0120000
0000000
0000000
0000000
0000006
000008A
0000010
0000000
0000002
0000000
000FF56
000FFD0
0000000
0000008
3F20004
0000006
02E0000
0000000
3FA0006
3CA0000
0000036
3E60000
396FFB8
000FF74
0000000
0000000
0000000
0000006
00A0000
0000000
0000000
3FE0022
000000E
000001C
3F6001E
0000000
0000000
000FFEC
000FFE6
030FFA6
000FFFE
0000000
0000002
000000A
0380004
0000000
3FC0000
39A0006
3FC0000
0000000
0000000
0000000
000FFF2
000FFFA
0000000
0000000
0000000
000000E
0000008
0000060
0000012
0000000
0000014
0000004
0000000
000FFDE
000FF54
002FFCC
000FFF6
0000000
0000000
0000000
01E0000
0400000
0000000
0000000
0000000
0000000
0000000
0040000
000FF8E
000FFAC
0000000
0000000
000000C
0000004
0000000
0000000
0000010
0000008
0000010
0000000
0000000
000FFE6
0000000
0000000
0000000
0000000
0000000
0000002
0060002
006FFFC
0000000
0000000
3D00000
3CC0000
3880000
0000000
000FFF8
000FFD6
0000000
0000000
000000C
0000002
0000000
0000000
0000000
0000000
0000000
0000000
0000000
000FFE6
0000000
0000000
0000000
0000000
0000000
0000000
0020002
0000000
3FC0000
3FE0000
3F2FFF0
3D00000
3D4000E
3C6001E
0000000
0000000
0000000
000FFFE
0000000
0000000
0000000
0000000
0000000
0000000
0000000
0000000
000FFFE
0000000
020FFF2
006FFF0
0140000
004001A
0060000
0000000
0000000
0000000
0000000
3FE0000
0000000
000FFFE
0000000
3F4FFFC
0000000
000FFFE
000FFF4
0000000
0000000
0000000
0000000
0000000
0000000
0000000
0000000
0000000
0080000
3FA0020
026003A
0060000
0000000
08E001E
0000008
3FE0028
3E4FF80
3ACFF6A
3F60000
01E0000
06A001A
0120000
00CFFE0
0360000
0000000
0000000
0000000
0000024
0000000
0000000
0000000
3FA0000
0000000
0000000
0080000
3FE000E
3FA0014
0000000
0180000
0000062
010005C
0000012
0060000
000001A
0000000
016FF7E
0000000
002FFF8
0420000
00A000E
0080016
002FFF8
3FC0000
0000000
0000000
0000000
0000000
0000000
0000000
0000000
0000000
0000000
0000000
3F4000A
0000014
0000022
000000C
3E6008C
000002C
000FFF8
000FFFE
3FE0000
0000002
0260000
0080000
002FFEA
3FEFFFE
3F60000
3FE000E
0000000
0000000
3E80002
000FFFE
0060000
0000000
0000000
0000000
0000000
0000000
0000000
3FE0000
3FC0000
0000000
38E0000
0000000
0020000
0020000
0000000
0580000
0000000
0000026
00E0006
0120000
3F80000
0000000
3EC0000
0000000
000FFC2
000FFF8
3FC0000
3FC0000
0000000
0000000
0000000
0000000
0000000
0000000
0000000
3E60000
3E60008
000FFFE
002FFFC
0180000
0000000
3F00000
0000008
0420000
0080000
0000004
3FC0014
00A0000
0000000
0000000
3DC0006
3DA0000
004FFEA
00EFFFA
000FFFE
0000000
0000000
0000000
0000000
0000000
0000000
0000000
0000000
0000000
3EC0000
00E0000
000FFD2
00CFFD2
0000000
0000000
0080062
0100000
0220000
0000000
0000000
01E0000
0560000
0000048
000001E
3720000
3FE0000
000FFDC
0060000
0000000
0000000
000FFFE
0000000
0000000
0000000
0000000
000FFFE
3920000
002FFBA
00AFFD4
000FFEE
0000000
000000E
0080000
3FE0000
0000000
03A0006
0000000
3F00000
0000000
0000000
0000000
3FA0022
0000000
3F40000
0000000
00AFFDE
0000000
000FFFA
0000000
0000000
0000000
0000000
0000000
3A80000
0000000
012FFFC
012FFF8
000FFF0
3EA0000
3DE0000
0040000
3F80000
0000000
0000000
0120000
0100000
0840000
00A0000
3F20000
0000012
3AE0026
3EA0000
3FC0000
0020000
000FFF0
0000000
0000000
0000000
0000000
0000000
0000000
3FCFFFE
0000000
000FFFE
000FFD4
0020000
3E80000
3C40000
000FFFE
0000000
0000000
0480000
0120000
0080000
00A0002
0000000
3F20000
3C60000
0000000
3FA0000
0000000
000FFE2
004FFEC
0000000
0000000
0000000
0000000
0000000
0000000
000FFFC
0000000
0000000
000FFE8
0000000
3FC0000
000FFFE
3CEFFEC
0000000
00E0004
0040000
0080000
0640002
0100000
01A003A
3F00000
388FFEA
0000000
0000000
0000000
0020000
000FFF8
0000000
0000000
0000000
0000000
0000000
000FFFE
000FFFA
0000000
0000000
0000000
0000000
0000000
0000000
3F80000
0200000
0000000
0000016
03C0000
000FFFE
00A001C
0000000
3F80000
3B20000
3C40000
0000000
0000000
0060004
0000000
3FE0000
0000000
000FFDE
0000000
0000000
000FFFE
000FFE2
000FFF6
000FFFE
0000000
3CC0000
0040000
0000000
000FFFE
0060000
0000000
08E0000
0280000
03A0000
000001A
0000000
0000000
0080000
3FE0000
3E20000
3C60000
0000000
000FFFE
3FE0000
000FFD8
0000000
0000000
0000000
000FFF6
0000000
000FFFC
3FE0000
3F8FFF6
3F60000
0020000
000FFFE
0000000
000000E
000001E
0480000
0000000
0060000
0020000
3DA0008
0060000
3CC0000
0000000
000FFB4
3D60000
3F8FFF6
3FAFFFC
3FC0000
000FFDC
0000000
0000000
0000000
0000000
000FFE4
000FFFC
000FFFE
3C8FFF0
0000000
0040000
000FFFE
0000006
0000000
0180000
026000C
0000024
0000000
0000000
0000000
0160000
0000000
0000000
000FFAA
3FE0000
3EE0000
3FEFFF0
0000000
0000000
0000000
0000000
0000000
0000000
0100000
0000000
0000000
3D40000
3EA0000
000FFCE
0000000
0000000
3FA0000
3F40000
0000000
0000000
0000000
0000000
3FA0000
0000000
3E80000
3E40000
3FEFFA0
0000000
3F60000
3EAFFF2
0000000
0000000
000FFF4
0000000
0000000
0000000
0000000
0220000
0000000
3F00000
3920000
3EE0000
0000000
0000000
0000000
0000000
0200000
0000002
3EE0000
0020000
0000000
0000000
0000000
000000C
3F80000
0000000
3FEFFFA
0000000
0000000
0000000
0000000
0000000
0000000
0000000
0140000
00C0000
0000000
0000000
3FC0000
3F00000
0040000
0000016
0000008
0000012
3FE0000
0000000
3D20006
0000000
0000000
0000008
0000048
0020004
000FFFE
0000000
3FE0000
0000000
0000000
0000000
000FFDC
0000000
0000000
0000000
0000000
0020000
0000022
0000000
0000000
3E60000
3F80000
012000A
3FE0000
0000000
0000000
0000016
0000000
0000000
0020000
008000C
0000000
0020044
3D0FFF2
0000000
0000000
3EC0000
0000000
0000000
3EEFFE8
0000000
0000000
0000000
0000000
000000A
0000002
0000000
0020000
0000000
0000000
01E0024
3EEFFE6
0000000
0000000
0020000
0000000
0000000
3F00000
0000002
0000000
0000000
3E80000
0000000
0000000
0000000
0000000
0000000
000FFD4
0000000
0000000
3EA0000
0000000
0080008
0000000
0000000
0040000
000FFFE
3FC0000
0000000
3EC0000
0000000
0000000
0000000
38C0000
0000000
3F40000
0000004
0000000
0000060
0000000
0000000
0020000
0000000
0000000
0000000
0000000
000FFE0
0000000
0000000
0000000
0000000
0000000
0000000
0000000
0000000
000000A
0000000
3F80000
0000004
0000000
0000000
3D00000
0000000
000001E
040000A
0000008
0000000
0000022
0000000
00A0000
000FFF8
3FEFFFE
0000000
3F40000
000FFFE
0000000
0000000
0000000
0000000
0000000
0080000
004FFFE
0000000
3FC0064
00A0000
3FA0000
0000030
0000000
3D20000
39E0000
3A60000
000000C
0000002
0000000
0000020
0020000
0020000
00E0000
0000000
3F0FFF4
3FE0000
0000000
000FFB8
000FFFA
0000000
0000000
0000000
0000000
0180000
0020000
0000000
0000000
0000000
0000000
0000004
0000000
0000000
3B80082
0000000
0000000
0000000
0060010
0000056
0000038
0000000
00AFFEE
004FFFC
0000000
0000000
0000000
0000000
0000000
0000000
0000000
0000000
000FFF4
0000000
0000000
3FCFFF0
0000004
0180000
0000000
0000062
000000A
0000000
3A2003C
0000000
0000000
0000012
00E0000
0020000
000FFFC
0000000
0020000
0020000
0000000
0000000
0000000
0000000
0000000
3FE0000
0000000
0000000
000FFD0
0000000
0000000
3EAFFF4
0000000
00A0000
0000000
0000000
0000000
0000004
0000000
0000000
0000000
3FA0018
0000000
0340004
0000000
0000000
0120000
0060000
0000000
0000006
0000000
3EE0000
000FFFE
0000020
0000004
0000000
00E0000
00E0000
0000000
3FE001A
006FFFA
0080000
0000000
0000000
0000000
0040000
3D20000
0000000
0000000
3F40000
0000020
0040000
01A0004
0100028
0100000
0100000
0000018
0000012
0000000
0000000
0000000
0000000
0000000
3F20008
0000000
0000004
0000000
3F40000
0000000
006FFD2
3F20000
0000000
0000000
0020000
0060000
000FFF6
0000000
3F80000
0000000
00E0000
0000002
000002A
0000000
000000C
0000000
3FC0000
0000000
0000002
000FFF4
0040000
0000002
3F80006
00A0000
000000C
3EE0000
3BCFFF6
000FFEA
002FFE2
3FCFFE6
0000000
0020000
0000062
0000060
3F8FFF2
00A0000
0340006
006FFF6
0000000
000005A
3C80000
0000004
0080002
3F80000
0000014
0000000
000000E
0000000
0000002
0000000
0000000
0000026
0000000
000FFFA
3F60000
3F8FFF6
0100042
0000000
3F40062
3E40022
000001E
006006E
3F80006
00E0000
3FE0000
000FFFE
0220000
0300006
3FE0000
0280000
0000000
3F00000
0000000
0000000
0000000
0000000
0020000
0000000
0020000
3B80000
3FE0002
0000000
3F0FFEC
0000000
0120000
0000016
0080000
3F80000
3FE0000
0280000
0000002
0280000
0000000
0340000
0080000
05AFFD4
028000E
3F8001A
0000000
0000000
000FFCE
0000000
0000000
0000000
0000000
0000016
0120000
0000000
0000000
3BEFFFA
036FFFA
0080000
0040002
0000000
3B80000
3FA0000
0000002
3FA0004
0000000
3FE0000
3E40000
0040000
00E0000
0000000
0000000
3FE0000
0000000
0000000
000FFFC
0000000
0000000
0000000
3F00000
0000000
00E0014
000001E
0000000
00EFFF0
3DEFFD8
3C40000
0080004
3C80000
0080000
0020000
3F60000
3DE0000
05AFFFE
00EFFEC
3F40000
0000000
000FFCA
0160000
008FFE2
0000000
0060008
0000000
000FFF4
0000000
0000000
3FE0000
3F80000
000FFFE
00E0000
0000000
00CFFF4
000FFF6
3FA0000
00C0000
0140012
0000000
0000000
0680000
3FA0000
3F20000
000FFFA
020FFEC
3EA0000
3EE0000
0000000
0000000
000FFD4
3FE0000
0040000
0020000
0000000
0000020
0000000
0000000
3F80000
0000000
3FE0000
0000000
004FFF8
0000000
0000000
3CA0012
0100000
0000000
0040000
0000000
0000000
3FC0000
0080000
0020000
0060004
3D20002
3F60000
3A00016
3AC0000
3880000
3F80000
000001E
0000000
0000000
0000000
0000000
000FFFC
00A0000
000002A
0060000
3EA0000
002000E
0000000
0000000
3FC0000
0000000
0800000
0040000
0140000
0000000
0180000
0080000
3E2000A
0000000
0000000
0060000
3DE0000
3B60000
0000000
0180028
0060000
0000000
000FFFE
000FFF4
0000000
0100000
3FA0006
0040000
0060000
020003A
00A0030
3F60000
3FE0000
0000000
0280000
04E0000
008FFFE
0000000
0020000
3FE0000
3FA0000
3FE0004
04EFFF2
0000000
0120000
000FFFE
0000000
00E0000
0120000
000000A
000FFFE
0000000
0000000
0000000
0000008
0000000
0080000
04A0006
070002E
0160000
0060000
0040000
0000000
00E0000
0100000
3FC001C
0000000
0000000
3FC0002
0560000
0380000
3F40000
0000000
3F4FFEE
0000000
04C0000
000FFFC
0000000
0000000
0000000
0000000
0000000
00A000A
0000000
3FA0002
0000056
04C0000
02C0000
06C0000
0800000
3F00000
3E00000
00A0000
3CC0000
0120000
3FC0000
0000000
0020000
0000000
3F6FFF0
0060000
3FEFFD4
3F8FFF6
0000000
0000000
0000000
3FE0000
0000000
0000000
0000002
3FC000A
00E0000
3FC0000
0380018
0000000
0000000
04E0000
0000004
0000000
0040000
0000000
0140000
0000000
000FFF4
000FFBC
0000000
000FFFE
000FFE8
0000000
3EE0000
0000000
0000000
0000000
0000000
000002A
0000000
3FC0000
0000006
3B40000
0060000
3F20000
03A0002
3D80000
0060000
03C0010
0020002
00C0000
3E60012
0000000
0000000
0040000
3EA0000
3EC0000
000FFF4
010FFFA
000FFF8
3E20002
3CC0000
3DA0000
0000000
0000000
000FFFE
0000004
0000000
0000000
3F40000
3FC0000
0060000
00E0000
0200004
0000000
02E0000
0460000
0060000
0000000
006001C
0020008
38E0012
0040000
3F80000
016FFFE
0080000
000FFF6
0000000
3FE0008
3FE0000
3F20000
3B40002
0000000
0000000
000001A
0000000
0000000
0000000
3C80000
3B80000
0000000
03C002C
00C0000
04A0000
0280000
0420002
0020002
0000000
3D2FFFC
3F20000
0360000
3F00000
3FE0000
0000000
3F8FFFE
000FFD4
0000000
0000000
3E20000
3F20012
3FA0000
0000000
0000000
0000000
0000000
3DC0000
0000000
0040000
004FFCC
3FC0000
0080000
00E0000
0000000
0140000
0020000
0040000
0000000
3980000
0140000
0040000
0000000
0160000
0040000
004FFFE
0000000
3FE0000
0000000
3F40014
3DE0000
0000000
000FFF6
0000000
0000000
002FFFE
000FFFC
0020000
0020000
0000000
0000000
0000000
0240000
000FFFE
0000000
0040000
3C80000
3BE0000
0180000
0000000
3FE0000
0000000
0060000
000FFFA
0000000
0000000
0000000
3EC0002
0000000
00C0000
016FFA8
0000000
0080000
0020000
0000000
000FFEE
000FFF8
0200000
0020000
3FE0000
3FC0000
0140000
3DE0000
0020000
3D60000
3C20000
0080000
0000000
3FE0000
3E4FFDC
00A0008
0000000
0100002
0140000
000FFF6
3FA0000
0000000
0000000
0000000
0000000
000FFFE
0000000
0000000
3D00000
0000000
0000000
0000000
3EAFFFE
0000000
0000006
3EC0002
0000000
0000004
35C0000
0000000
3F60000
0620000
3F60000
0000000
3FC000C
0040000
3F40000
010FFE8
0000000
0000000
0000000
000000C
000FFD6
000FFFC
0000000
3CE0000
0000000
0000000
0000004
0000000
000FFFA
0120000
0000000
0000000
0000000
3FC0000
3560000
0000000
0080000
0040000
3FEFFFE
0020000
3EE0000
3D40000
3E80000
0000000
3B80000
000FFF4
000FFF4
0000002
0000000
0080000
0000004
0000000
0000000
00A0000
0180008
3F2FFF8
3EEFFF6
00A0000
02C0000
0000000
0060000
002FFFA
38CFFFE
0000000
0040000
0500000
0000000
3FE0000
3C4FFDC
0000000
0000000
0000000
3D40000
000FFFE
000FFEE
0000000
0000000
0000000
000001A
0040056
0000008
0360000
00A0000
3F0FFFE
3E8FFF8
000FFFA
000FFFE
004FFFE
002FFFA
00C0000
3520000
3FA0028
3F80002
026000A
3FC0000
0000000
0000000
0000000
05C0012
0200000
0000000
00A0000
000FFFC
0000000
0000012
0000000
0000000
0140000
3FC001E
0000002
0000002
3FA0000
3FCFFFE
3BE0000
0020000
0000002
0000012
0060000
376003C
0120094
0000002
00C0000
0000000
03C0000
3F80000
3EE0000
000003E
0000026
0020000
0080002
00A0000
0000004
0000000
0000000
0000000
0000000
3F8001A
0000000
3FE0000
3FC0000
000FFF0
0000000
0140000
0000000
0000000
0080000
3640000
0000000
0000000
04A0000
000FFF0
000FFF2
0000000
000000E
00A001C
00C0000
0000000
0020000
0000000
0000002
0000000
0000000
0000000
3F80000
3F80012
3FC0000
3E00000
0000000
006FFEE
3F60000
0580000
0000000
008FFEE
0060000
37A0000
0000000
000FFF0
000FFAA
06AFFEC
026FFE4
0000000
0000000
0020042
0000002
0000000
0000000
0080000
3FE0006
0000000
0000000
0000000
3D00000
000001C
3F80010
0000000
3FC0000
00EFFFE
0300000
0480000
0000000
00C0000
3FEFFDA
35C0000
3FA0000
3FC0000
04C0000
044FFF4
008FFEA
00AFFEE
3C80006
000000A
0000000
0000000
0000004
0000000
0000000
0000000
012FFC0
3F80000
3FC0000
3C00000
3C20000
3B40000
3FA0000
0220000
0580000
00A0000
0060000
0000000
008FFB0
3D2FFFA
03AFFCC
0520000
00E0000
0460000
0000000
0060000
3C40000
3FC0002
3FA0002
0000000
0000004
0000000
0000000
000FFF4
3EC0000
0000000
3F20002
3E20000
0020000
3B40000
00E0004
0200000
0080000
0040000
0560000
