000
0AE
06E
192
000
034
000
7F4
11E
000
768
002
012
10E
012
7FA
008
6B8
0CA
712
7AE
036
000
000
740
000
686
000
758
002
024
000
000
6B4
000
7DC
724
024
006
7DA
002
006
000
7C0
098
04E
7B8
008
000
000
00C
000
05C
000
79A
7FC
000
7EE
00E
078
70E
000
79E
000
114
00C
000
000
000
000
000
78E
0B0
000
08A
08A
20C
000
000
7FA
7CC
020
07C
120
7FE
004
000
010
000
06C
000
7A0
000
02C
7FE
000
004
000
00C
000
000
776
010
72C
006
000
000
000
000
022
03E
000
000
7FE
000
7E0
01E
778
000
108
09E
05E
11A
000
000
7F6
7FE
0DE
000
000
000
000
0C2
0C2
000
000
7FC
7FA
00E
046
7F6
7FC
000
070
7FA
0C4
038
7FC
0CA
000
000
000
000
75C
090
000
000
090
00A
000
000
000
000
70E
0B8
7E6
000
188
70A
000
000
74C
000
000
000
000
7DA
104
7E0
000
000
0A0
000
000
000
000
000
7DE
000
046
13E
000
000
02A
000
728
7FA
000
7EE
000
000
000
002
000
000
000
000
000
78E
7FE
000
000
018
000
002
000
000
000
062
000
000
00A
000
7FC
000
04C
000
7EE
7FC
09A
000
000
000
77E
000
000
000
000
000
000
000
000
000
000
000
000
000
000
000
000
000
7FE
000
000
000
000
000
064
000
000
7E2
06A
000
7FC
000
000
006
000
000
000
000
7F0
000
0F8
7EA
000
038
014
000
000
000
000
094
000
0C2
7FE
000
000
000
00E
000
000
000
000
000
000
7FC
7FA
008
000
000
000
000
000
000
000
05A
002
000
000
000
000
000
096
000
000
000
000
000
0D0
000
000
000
7A2
000
7D0
000
77C
000
000
020
000
076
000
000
08E
000
000
0B8
028
000
000
000
002
030
000
000
000
000
000
000
000
000
000
000
000
000
056
77E
000
000
000
000
000
000
792
000
7E6
000
000
000
000
0C6
08C
000
000
000
000
000
004
000
000
000
000
000
000
000
000
000
000
000
000
000
000
000
000
000
000
000
066
000
000
000
0F0
000
000
000
142
000
09C
7F0
7FA
67C
000
7F4
7FE
014
0E0
0A0
7E8
000
7F2
000
024
04E
000
000
034
00A
000
000
004
002
016
0EC
000
000
0FC
000
060
014
00E
006
0EE
78E
7FE
000
7FE
000
000
000
16E
000
7B0
718
004
000
000
7D6
000
0BE
7F2
000
000
726
012
000
7F8
0DE
000
0F2
024
000
000
10E
058
000
7EA
00A
018
7F6
7FE
000
7B2
724
000
000
000
0CA
000
7FC
000
000
6D4
000
7FE
004
12A
7E0
000
000
000
000
008
000
02E
000
0A2
002
00A
70A
000
06E
0B8
000
718
000
7F6
000
0E0
7E0
000
000
000
078
000
7EE
000
008
000
012
000
000
000
000
000
7F8
00C
0DA
000
110
038
000
000
000
000
7E0
000
000
000
7F8
018
000
000
000
6D8
000
000
0B2
000
000
7EE
77E
000
00C
000
034
000
000
02C
000
000
000
138
002
000
010
7FE
6F6
000
000
074
000
020
70C
06A
7FC
734
000
7DA
002
000
000
03C
7FC
000
016
000
000
000
000
000
000
000
000
000
000
006
000
004
000
002
7FC
000
000
000
000
058
7FE
004
000
7F4
7F6
004
000
000
006
000
000
778
7E2
000
000
000
000
000
000
000
000
000
000
000
000
000
06E
000
000
000
000
000
018
010
000
000
000
000
000
000
000
79A
022
7FE
000
000
000
000
002
7FE
07A
000
000
01C
00E
7F6
0D8
000
000
7FA
000
000
000
000
000
000
000
000
7FE
000
000
7FC
000
000
000
000
054
000
000
0D6
7FC
000
000
000
000
000
000
0C8
000
000
000
000
000
000
000
000
000
000
000
000
000
7F2
7D6
05A
000
000
000
010
000
000
000
000
000
000
000
000
000
000
000
000
000
000
070
000
000
000
000
000
000
000
000
000
000
014
000
000
000
7F0
000
000
000
000
000
000
000
000
000
000
086
000
000
000
000
000
000
000
000
000
03A
000
000
000
77E
000
000
000
000
000
000
000
000
000
000
028
000
000
000
000
000
000
000
000
000
000
000
12A
77E
01A
000
000
0AC
0AC
7F4
022
7D6
118
000
000
000
000
000
004
000
000
004
010
120
000
068
002
000
796
000
000
000
09C
0D0
000
694
002
11C
7E6
000
128
004
016
000
000
004
726
7C0
00E
004
1C6
000
002
7C6
0A4
000
000
7F2
7EE
038
000
000
000
000
000
002
000
00C
000
0C2
00C
000
738
040
0F4
000
7D6
000
0DC
7D8
11E
000
000
7F6
008
7EA
7A0
102
7FC
7F6
000
000
008
000
000
000
028
7D6
000
000
130
6CE
000
000
000
000
01E
000
760
00C
7A2
000
7EA
050
000
018
016
768
7FA
714
000
000
148
000
000
124
000
0B2
052
750
00C
7F0
000
000
000
1C4
018
784
10E
15C
000
122
0D4
000
000
000
0E6
000
000
7B8
016
072
130
000
05E
000
000
000
0B6
000
082
000
778
7B6
010
000
0C8
0A2
000
114
0A0
000
102
000
782
000
7FE
01C
00A
024
680
136
000
000
6F0
00E
01A
0E8
00C
7B8
006
000
7FE
012
782
000
0D8
078
792
000
000
01C
006
000
002
060
000
00E
700
000
000
008
03A
002
000
00C
7EC
000
7D6
000
0B4
010
000
000
000
000
036
7F8
000
002
000
000
7FE
04E
000
000
0F2
000
000
14E
788
000
000
000
7D8
7DA
7CC
086
000
000
790
000
07E
026
054
000
000
000
000
736
758
000
000
000
00C
000
00E
000
000
08A
000
000
0D8
7FE
000
000
036
008
02A
000
000
096
012
058
000
000
02A
792
0EA
7FA
720
000
002
0A2
08A
000
000
026
000
000
008
7EA
000
000
000
000
000
7FE
00E
008
000
000
000
000
000
7FC
000
0AA
014
006
000
72A
7EE
000
0DA
002
7D6
006
0C4
000
000
000
000
78A
000
0FA
77A
000
0E4
7F2
000
000
7FA
016
140
004
006
000
04A
0FC
000
000
790
00A
000
000
000
000
0C6
000
130
064
000
000
7CA
0B2
7B0
000
7F0
77A
7B2
0E2
000
000
000
020
07A
000
772
000
000
000
00C
002
000
0D6
000
000
782
136
1B6
000
712
7FC
000
130
000
0C0
000
000
000
000
000
012
000
062
000
000
0F2
002
000
000
000
000
000
000
000
000
01C
000
000
000
000
000
080
006
000
000
000
000
000
7E0
000
004
000
032
000
010
000
7FC
740
000
7FC
7EC
000
7F6
002
00C
000
1DC
000
000
000
00E
00E
000
000
000
7CE
000
000
000
000
092
7AE
094
000
000
7D8
000
000
008
000
000
000
000
012
000
000
7C8
000
000
000
0A2
000
00C
000
000
000
024
000
000
000
7FA
000
000
000
000
000
000
000
770
754
0F6
000
000
086
7FE
16E
002
000
000
7FC
000
010
000
13A
7BC
140
0FC
716
000
000
000
000
00E
000
0EA
084
74A
000
000
000
000
000
114
7FA
746
000
7DE
000
074
000
000
13E
028
7AA
000
000
018
000
000
000
000
0A6
000
078
002
002
000
172
000
0C6
038
7EA
000
768
000
000
000
000
000
7FA
000
000
0BE
000
000
6F0
000
000
7F8
7F8
00E
000
000
7E8
0A0
000
0C2
006
000
000
000
7FE
000
018
768
000
000
000
000
000
000
000
000
000
000
000
000
000
000
000
000
000
000
000
000
000
000
000
000
000
000
000
000
000
000
000
000
000
000
000
000
000
000
000
000
000
000
000
000
000
000
000
000
000
000
000
000
000
000
000
000
000
000
000
000
000
000
000
000
000
000
000
000
000
000
000
000
000
000
000
000
000
000
000
000
000
000
000
000
000
000
000
000
000
000
000
000
000
000
000
000
000
000
000
000
000
000
000
000
000
000
000
000
7F8
7FE
7AC
000
00E
000
000
000
000
000
000
7F2
0EE
000
000
7EA
074
000
146
000
7F0
002
000
754
7FA
000
000
0EA
00E
000
0EA
09C
000
780
000
000
7EE
000
000
00E
7FE
7FE
0CC
042
7FC
000
000
000
000
03E
000
01E
7FE
008
7FC
000
1F0
00E
000
00C
000
00A
000
7FE
00A
00A
7F8
00E
0BE
10C
7FC
000
000
000
000
000
7FE
10A
000
782
7E4
710
6CC
000
002
000
7FE
7F8
020
000
014
790
0BA
000
000
7F0
7F4
014
6D8
000
000
000
00E
0CC
002
7FC
000
7E2
000
004
016
000
76A
00A
06E
7F0
110
006
000
00C
028
014
000
7F8
000
7FC
006
7AE
000
024
000
000
066
7E8
7E4
000
702
080
008
05E
000
000
0AE
18C
000
000
000
000
11C
07E
000
000
002
02C
0F6
7BE
004
764
000
076
000
008
7DC
77C
002
0DA
6F6
104
000
00A
7F4
124
7FE
000
000
7FA
000
01C
7FC
000
7FE
786
7C2
016
00C
000
7E8
000
7FE
000
110
762
000
000
000
000
000
000
000
000
000
000
000
000
000
000
000
000
000
000
000
000
000
000
000
000
000
000
000
000
000
000
000
000
000
000
000
000
000
000
000
000
000
000
000
000
000
000
000
000
000
000
000
000
000
000
000
000
000
000
000
000
000
000
000
000
000
000
000
000
000
000
000
000
000
000
000
000
000
000
000
000
000
000
000
000
000
000
000
000
000
000
000
000
000
000
000
000
000
000
000
000
000
000
090
668
004
000
000
000
002
000
14A
7F6
000
73E
77C
7FC
744
000
154
76A
014
768
714
7EE
024
0C2
000
076
0F2
102
7F2
000
0C6
74E
01C
7FC
0A8
012
006
0DA
000
000
014
016
002
7FC
00C
032
000
758
006
00C
14A
000
000
006
016
000
000
7AA
7FA
03C
000
7DA
008
000
00C
020
000
12A
13C
000
170
010
7EC
108
7D6
01C
700
000
000
094
7FC
716
000
7F8
018
7F8
7E2
000
7E6
000
002
000
000
0B0
74C
16C
1F6
7F2
7B0
000
030
000
00C
000
01E
000
0E6
000
000
000
000
000
0AA
114
000
034
000
000
0E2
000
000
000
000
000
01A
01A
67A
000
16C
0C2
000
000
000
000
0D4
00A
0CE
7A2
000
000
000
000
000
072
000
000
178
000
000
026
000
000
000
02A
000
000
000
07E
000
000
000
092
09E
000
7FE
00C
6E6
00E
73E
000
000
130
008
000
000
07C
000
008
06E
7FE
000
000
000
000
0AC
014
000
000
000
01C
01A
000
766
790
100
05C
72E
000
006
000
000
000
000
040
000
000
026
000
000
000
000
000
7DE
000
000
000
000
02E
000
000
000
000
000
000
000
000
000
000
000
118
000
7FE
000
016
000
000
000
000
000
000
000
000
000
000
000
000
036
000
000
00C
000
000
000
000
082
000
000
050
7C8
000
000
000
000
000
000
000
000
036
7F6
000
000
000
000
000
000
000
000
000
096
000
000
000
000
000
7FC
00E
000
000
05A
000
000
000
7EA
000
000
000
000
000
000
000
008
05C
7F4
006
000
7D0
7FA
000
7EE
136
7D6
174
7B8
08E
0CE
018
750
000
7FC
000
01C
126
000
000
000
7CE
000
7FE
7FC
008
000
000
000
000
75C
00C
000
000
14E
000
736
000
082
000
7B2
740
0D4
000
7FC
7F4
7DE
000
002
0B8
0EE
000
000
0BE
010
694
018
002
75A
7FC
000
71E
002
7F8
000
082
734
76E
116
7CC
042
728
01C
000
0B6
014
000
026
000
00C
7D6
022
00E
00A
02A
000
002
000
000
000
7DE
728
000
00C
000
000
000
000
000
000
000
7BC
000
000
000
008
000
0DC
000
000
000
000
000
000
000
000
03A
000
000
000
000
048
000
000
000
000
000
000
000
000
000
000
772
000
000
000
000
000
012
000
000
094
000
000
000
098
000
000
000
000
002
000
054
000
000
000
000
000
000
000
000
7FC
000
000
000
000
000
000
000
000
000
000
02E
000
000
000
000
000
000
000
000
03A
000
000
000
000
000
000
000
000
7A4
000
000
000
000
000
090
7E8
7F6
0FC
000
7A2
722
716
000
100
788
018
7BE
006
000
000
000
000
002
002
0DE
006
7E6
000
000
0A0
000
000
742
000
000
018
002
000
7C8
014
6F6
7FA
1D8
000
7E6
728
7FA
744
008
6FC
0CA
000
746
7F6
7D2
000
006
026
000
000
00C
012
0D8
7DC
12C
032
000
000
7DE
000
03C
7EA
000
000
7EC
000
14E
7D4
000
6B2
16E
000
01C
03E
7E4
002
000
002
7E6
00A
000
000
002
000
136
000
000
002
000
7EE
7F0
0E0
000
000
07C
71A
7D8
000
000
000
000
000
000
000
7E6
160
792
000
000
030
000
000
07C
000
0EE
000
070
790
000
7E4
000
000
000
000
000
726
000
07E
000
01C
160
000
000
000
000
000
000
000
010
01C
000
000
0C4
000
012
000
000
000
000
000
7FE
068
000
000
140
708
000
000
000
000
0A2
000
0FC
000
000
000
00A
000
79A
052
000
000
000
000
000
0C6
016
03A
7F0
18C
000
000
032
7FC
000
000
192
000
796
000
010
000
076
000
13A
000
000
000
000
000
7F8
790
7E4
17E
000
0B2
7FE
000
128
002
00C
092
000
000
018
002
764
000
0D0
126
7E0
000
000
7F8
000
728
7CA
000
7A4
018
006
036
7FE
722
000
000
000
114
000
000
010
000
000
7FC
7E0
000
000
000
000
000
7FE
01E
004
7F4
002
002
000
000
790
000
004
092
000
7D0
68E
008
000
7E0
000
0FC
128
012
000
000
6FA
010
7DE
030
7E8
168
0DE
7FC
010
6D4
002
000
000
7FC
000
09C
728
018
000
000
000
000
000
000
000
000
000
000
000
000
000
000
000
000
000
000
000
000
000
000
000
000
000
000
000
000
000
000
000
000
000
000
000
000
000
000
000
000
000
000
000
000
000
000
000
000
000
000
000
000
000
000
000
000
000
000
000
000
000
000
000
000
000
000
000
000
000
000
000
000
000
000
000
000
000
000
000
000
000
000
000
000
000
000
000
000
000
000
000
000
000
000
000
000
000
000
000
000
000
000
07A
000
002
7A4
068
000
000
000
014
000
11A
7CE
154
7F8
7FE
770
000
7A4
000
0DC
6A6
740
012
000
06C
00C
00E
00E
7CC
078
000
000
7F6
080
000
06E
000
000
7F6
6C0
00A
002
000
0C8
0C2
000
002
000
002
00E
002
04A
000
08C
7AA
000
000
75E
09A
150
7F8
000
000
000
000
0C6
7D6
00C
708
000
158
0C4
6F0
038
000
018
704
014
006
760
7F2
764
012
7FC
148
7FE
7FE
0C6
6E6
00E
000
000
7F6
072
7FA
184
000
784
000
000
000
006
10A
000
002
000
000
000
000
7E8
038
000
136
784
000
08A
7FE
000
000
7B8
012
000
000
000
044
000
65E
7EE
040
000
072
7F0
7FC
000
006
716
000
000
720
000
0A2
000
000
178
000
00A
000
000
042
000
000
000
000
7FE
000
000
7FE
006
000
000
008
000
000
0E0
002
000
000
09C
144
000
07A
000
000
000
0C0
122
000
000
7CC
000
000
0CA
000
000
066
000
000
000
004
008
000
000
004
000
03A
000
000
084
000
000
000
000
000
000
000
000
000
000
000
000
000
000
000
000
000
000
000
000
000
000
000
000
000
000
000
000
000
000
000
000
000
000
000
000
000
000
000
000
000
000
000
000
000
000
000
000
000
000
000
000
000
000
000
000
000
000
000
000
000
000
000
000
000
000
000
000
000
000
000
000
000
000
000
000
000
000
000
000
000
000
000
000
000
000
000
000
000
000
000
000
000
000
000
000
000
000
000
000
000
000
17A
7D6
000
000
020
000
0A6
000
0FE
7F6
7FA
012
000
000
7EA
01A
000
000
008
7F4
000
768
7A8
000
7A0
762
6EE
000
000
000
000
6F4
000
000
000
000
16A
000
000
088
000
000
000
000
000
000
000
000
000
03E
00C
000
000
000
7CE
000
704
060
000
000
016
7F4
09C
000
000
0E2
000
000
168
000
000
0EE
002
000
086
072
7FC
6D4
066
7E4
000
0A2
000
000
000
01E
000
000
000
000
000
000
068
000
78C
000
086
000
000
000
7FA
14A
028
7B2
0E0
000
000
004
784
7F2
0DA
000
018
000
7FE
000
7F4
0A2
746
7BE
000
132
000
000
08C
000
000
7EE
008
008
000
0E0
000
000
000
7D6
000
77A
000
010
026
000
008
000
6B2
6B8
0E6
0AC
7FE
7D0
000
000
000
7A0
000
000
012
756
006
78C
726
100
03C
000
122
000
046
782
06C
008
000
000
01E
000
0C6
714
0E0
004
002
000
000
000
020
716
0CC
000
026
002
000
05E
75C
000
000
0DA
002
000
6E4
014
000
000
060
012
0D0
000
00A
000
000
0CE
7FE
000
000
010
000
08A
000
006
7F8
08C
70A
784
00C
004
000
000
000
000
000
74C
788
002
000
000
000
000
000
000
006
000
000
06C
000
000
000
7FE
7D0
7EC
06E
000
000
000
000
7B6
000
000
000
000
000
01A
052
720
000
000
000
000
010
000
000
000
000
002
000
000
000
036
000
000
000
008
006
000
000
012
008
000
000
000
0FC
002
0CE
6FC
6E8
000
000
082
000
000
000
006
000
000
002
78C
7F8
024
032
000
7F2
000
000
000
000
000
000
008
000
7FA
7D4
000
114
088
000
000
000
7C8
000
774
000
040
000
000
798
000
000
000
000
000
000
008
000
000
000
000
000
000
004
002
000
0A6
000
11A
7C0
7FC
000
000
77A
000
000
044
000
000
0EE
79E
0B6
022
7F6
08C
000
000
000
7FC
7D2
0B8
000
000
000
0C6
002
7EA
000
000
0A4
000
000
012
034
00A
7E4
7FA
7FA
7EC
000
000
000
000
000
000
000
000
000
000
06A
03E
000
000
000
000
000
7FE
000
000
070
06A
0D2
7FA
028
000
7FA
08A
000
000
0A6
00A
7F2
7FE
108
762
6FA
770
0E4
000
070
7EE
7F6
000
000
6EC
000
038
7FE
6E4
758
000
05E
002
000
0E4
7F2
002
000
7FE
7B2
000
000
7FC
000
000
000
078
000
7FE
0D6
000
012
0E2
6D4
7F4
000
050
024
7DE
7F8
7F4
05E
000
026
004
01C
7E4
000
7E0
14E
05A
7E6
014
08A
000
000
000
010
124
000
000
034
76E
0CA
7F8
7F0
000
080
000
002
000
000
000
14E
000
6D6
070
7EC
7EC
720
06C
6BC
01A
71A
000
7F2
000
000
000
17E
7EA
000
5EC
7EA
6FE
720
000
7FC
002
7F0
0D0
7EE
000
000
0F6
09E
71E
00A
12C
000
7EC
7FA
000
7FE
7E6
00E
000
7FE
0B4
6BE
000
000
142
7F8
000
078
148
100
7F6
79C
018
7A0
000
71E
09A
000
7E6
000
000
7D6
7AE
008
7E0
7FE
000
128
7F8
7EC
026
000
000
00E
012
000
01A
008
7FC
0DC
000
7FE
000
74E
000
002
000
6CE
1B6
000
000
000
000
000
000
000
000
000
000
000
000
000
000
000
000
000
000
000
000
000
000
000
000
000
000
000
000
000
000
000
000
000
000
000
000
000
000
000
000
000
000
000
000
000
000
000
000
000
000
000
000
000
000
000
000
000
000
000
000
000
000
000
000
000
000
000
000
000
000
000
000
000
000
000
000
000
000
000
000
000
000
000
000
000
000
000
000
000
000
000
000
000
000
000
000
000
000
000
000
000
000
07C
000
000
000
000
000
000
002
746
000
000
000
000
00E
7F2
000
000
002
770
000
000
000
0B6
000
7B0
000
008
000
7F6
000
7FE
00C
000
000
000
000
002
000
0C0
042
000
000
000
000
7FC
7DA
08E
000
000
000
73C
026
042
0CA
01C
000
000
094
000
000
710
000
08E
000
000
000
000
000
000
000
000
08A
096
7F8
000
000
000
0B0
0B2
000
000
000
0CA
01A
000
000
006
000
064
7EA
7E6
000
000
000
000
000
000
106
000
000
000
7BA
000
742
094
000
7FA
71E
0EA
000
004
000
00C
6B6
004
7F4
000
7E4
020
000
000
002
000
00E
0DA
000
7F2
008
000
69E
000
7F2
020
000
100
000
000
134
000
7EA
002
000
058
000
004
0EA
7F8
000
088
000
0E4
000
000
000
7FC
000
000
7F6
76E
006
010
76A
002
000
092
0BE
004
000
056
000
0E2
000
000
0A6
130
000
000
000
0E4
048
028
03E
000
75A
000
7F4
698
77A
738
000
004
000
154
000
000
010
00A
7C8
000
000
006
000
000
000
000
000
000
000
000
09A
000
000
000
000
000
000
000
000
000
000
000
79C
000
000
00E
000
7E4
000
076
000
000
000
000
000
000
000
000
000
7F0
79C
000
000
000
006
000
062
012
000
000
000
000
000
000
000
000
000
000
000
000
000
000
000
0DA
000
000
000
76C
000
000
000
010
0CC
000
000
000
038
000
000
000
000
000
000
000
000
066
000
000
000
000
01A
07A
000
000
000
000
02C
7FE
000
000
000
040
000
000
000
07E
000
1FE
000
058
02C
030
000
7DE
00A
000
048
000
224
000
0FC
000
000
000
000
000
000
000
000
022
1C8
000
064
000
000
000
000
000
000
000
000
000
7D6
00C
0F4
000
000
006
000
000
02E
000
000
000
0EE
084
000
000
000
000
000
000
000
000
78A
74A
000
7EC
08E
7CE
000
000
012
002
000
7C6
018
000
000
022
6DC
000
000
79A
000
058
030
000
000
09A
006
000
000
7CC
736
000
000
000
0BA
000
000
082
000
01E
000
00C
000
000
000
000
770
000
7BE
000
7F2
000
000
7D4
000
002
000
000
000
032
000
000
000
7EC
000
02C
000
000
7EA
000
07E
000
7FE
000
01A
6EE
000
0F4
01E
0B6
09C
000
000
000
000
000
7FA
02A
000
064
7FE
038
000
000
7E2
000
000
000
77E
000
000
070
000
000
000
052
0C0
000
000
07E
000
000
008
000
000
000
000
000
000
7FE
000
000
000
7BC
000
00A
7E2
000
000
064
000
000
000
000
000
000
000
000
000
000
000
000
000
000
000
000
000
000
7CC
000
000
000
000
000
0E0
000
000
000
000
000
000
000
000
000
000
000
010
000
7D6
000
000
000
000
000
000
000
000
062
000
000
01E
000
01A
000
000
000
000
000
000
000
000
000
000
000
000
000
000
000
000
000
78A
000
000
000
000
000
000
000
000
000
000
000
000
000
000
000
000
000
000
000
000
000
000
000
000
000
000
000
000
000
000
000
000
000
000
000
000
000
000
000
000
000
000
000
000
000
000
000
000
000
000
000
000
000
000
000
000
000
000
000
000
000
000
000
000
000
000
000
000
000
000
000
000
000
000
000
000
000
000
000
000
000
000
000
000
000
000
000
000
000
000
000
000
000
000
000
000
000
000
000
000
000
000
000
000
000
000
000
000
000
000
000
000
000
000
000
000
000
000
000
000
000
000
000
000
000
000
000
000
000
000
000
000
000
000
000
000
000
04E
000
000
000
000
000
014
7FE
79A
01A
000
01A
0C4
796
000
7D0
00E
734
000
006
004
000
7F4
7FE
7FC
000
7FC
018
02C
000
000
716
7AA
000
7F2
018
000
6EA
006
000
082
000
0A2
7FA
000
098
008
000
006
000
000
746
000
096
000
000
06E
002
000
7F0
000
7EC
004
000
000
046
000
000
000
0AC
000
7D8
010
000
01A
000
000
7FA
7DA
002
000
132
000
006
7AE
0D8
000
000
0A4
7AA
000
010
000
000
000
000
018
000
000
000
000
000
000
000
000
7E2
000
7F8
000
000
000
000
000
7F6
0AC
7F8
000
000
000
000
000
006
000
000
7F8
000
000
762
000
000
000
000
000
000
000
03E
7E2
000
05A
000
000
000
000
7F8
7DA
772
000
000
000
000
000
7F0
000
7F8
000
000
000
04E
056
000
000
000
07A
14A
000
00C
000
014
000
000
000
000
000
040
000
000
000
000
0B0
000
000
00E
000
000
7FE
000
000
000
000
7F2
000
036
000
000
000
000
08E
000
000
000
000
000
000
000
000
000
000
000
022
000
000
000
002
000
000
000
000
000
000
000
000
000
000
01A
000
000
000
000
00C
000
000
000
000
054
000
006
000
060
006
000
000
000
000
000
000
010
000
000
006
75C
000
000
000
000
000
000
000
000
000
000
0EA
112
000
7F0
000
7F6
004
000
000
000
02A
01A
000
000
00A
000
0DC
000
000
000
000
000
000
000
000
000
000
000
000
000
000
000
000
000
000
000
02C
000
000
78C
096
7F8
000
7F8
000
7F6
7C0
00E
000
09C
7F8
06A
7FE
000
000
00E
008
000
000
7F2
00C
114
004
000
7EE
186
0C4
7FE
000
000
10A
000
000
000
002
7FC
13E
012
0A2
7FE
000
016
6D8
000
7E4
71A
000
000
01A
004
000
05C
000
0C8
000
0B0
000
7FE
020
0A6
7FE
002
052
00A
000
15E
000
7D2
000
00E
004
7FE
00E
000
6AE
7B2
000
10A
000
000
7F2
7F6
000
006
7FE
7EA
000
716
000
000
000
000
000
7F8
000
12C
7EA
15A
000
000
000
000
000
000
000
000
000
000
000
000
000
000
000
000
000
000
000
000
000
000
000
000
000
000
000
000
000
000
000
000
000
000
000
000
000
000
000
000
000
000
000
000
000
000
000
000
000
000
000
000
000
000
000
000
000
000
000
000
000
000
000
000
000
000
000
000
000
000
000
000
000
000
000
000
000
000
000
000
000
000
000
000
000
000
000
000
000
000
000
000
000
000
000
000
000
000
000
000
000
612
000
004
000
000
000
000
000
000
000
120
000
004
000
000
7FA
000
7D2
002
000
7E8
7A8
000
00E
0C6
024
000
000
008
7B6
000
18C
012
002
000
7EA
7B4
73C
006
000
0F0
000
0FC
000
000
740
000
000
000
000
6F8
000
026
000
000
000
032
68E
008
000
6AE
034
00E
000
000
00E
000
000
000
000
000
000
78A
000
0C8
648
01E
000
0F0
01A
7EE
720
000
7C0
018
000
090
08A
744
000
000
000
7FA
000
000
000
7E6
000
080
000
000
000
000
000
000
000
000
000
000
000
000
000
000
000
000
000
000
000
000
000
000
000
000
000
094
000
000
000
000
000
000
7F8
000
000
000
01E
00E
0E0
000
044
000
000
000
000
000
090
000
000
000
000
000
000
000
000
786
000
000
06C
7D8
000
000
000
000
000
000
000
000
000
072
000
000
000
000
000
000
01E
000
000
0A4
000
000
000
000
0CA
000
000
000
000
000
000
000
000
000
000
000
000
000
000
000
000
000
7FE
000
000
088
000
002
000
034
77A
000
7E2
000
000
000
77C
000
000
018
000
7EE
792
006
000
000
022
000
0D4
000
050
000
0B6
086
000
000
000
748
000
000
7E6
108
000
000
06C
08E
000
000
000
002
000
03A
000
000
000
000
000
000
042
784
134
000
7F2
004
000
7DC
0FC
752
00C
7E4
000
000
000
7EC
014
000
09A
7D6
000
000
7DE
01E
71A
000
000
0E6
044
7F2
000
7E8
09E
000
000
000
000
7F8
15E
110
7EA
000
000
7DC
000
000
000
000
000
000
000
000
000
012
750
000
000
000
7F8
000
000
000
000
000
000
000
000
000
000
000
000
000
000
000
0E4
000
000
000
000
6DC
000
000
000
000
000
000
000
000
000
000
000
000
000
000
000
000
000
000
000
000
7E0
000
000
000
01A
000
000
000
000
7E2
000
000
000
000
000
000
000
000
7CC
000
0CA
03E
000
000
000
000
7D6
0C6
000
000
000
000
000
000
000
000
000
000
000
000
000
000
000
034
7F8
7FE
000
7FE
038
000
000
000
01A
73A
000
762
100
000
000
00E
03A
000
000
000
000
00C
000
000
004
064
008
738
0A0
000
012
000
000
000
03C
000
000
002
000
7E6
000
7FA
000
0D0
000
008
000
000
0FC
7FE
05E
04C
102
000
000
05E
114
0E6
000
096
000
0B0
7FC
000
000
00C
000
7EA
000
7EA
002
000
000
000
000
000
012
002
000
000
000
002
11C
7FA
104
000
000
000
7EC
000
000
7F2
000
000
000
000
7FC
7C6
000
000
000
016
000
000
000
016
000
70C
7F8
000
000
000
000
000
0F4
09E
000
7E6
002
060
000
000
7FA
000
082
000
000
000
000
000
754
000
000
000
000
112
7FC
7FA
006
004
000
004
000
7F0
05A
000
000
000
7E0
016
000
0CC
7FE
000
000
752
7FC
7B2
000
000
000
000
7D2
12C
000
000
002
000
00E
008
000
000
000
000
000
7F4
008
000
7EC
000
004
062
7FE
000
000
0D0
002
0FC
6E6
000
000
000
000
000
000
000
7E6
000
000
0BC
7FE
000
000
000
000
00E
000
008
002
000
000
75A
000
002
000
000
000
016
0C8
000
000
000
000
064
132
000
0FC
000
000
000
000
000
000
000
10E
000
000
002
7E0
748
000
000
006
002
000
000
000
000
026
000
000
000
0EA
064
000
000
000
0BE
000
104
000
000
7C0
7E4
000
7EE
000
75E
000
000
076
03E
000
000
000
000
026
000
000
000
000
7FE
0AE
000
0CA
000
000
000
012
034
000
72A
7FE
000
0F8
090
000
000
000
000
000
7FC
016
000
000
75C
02C
014
008
00C
000
000
764
0BA
7F0
000
002
0F6
136
018
000
7EC
000
000
7F4
740
000
0DA
000
006
000
000
000
000
784
6BE
024
000
6C4
092
000
7FC
000
0C8
024
000
000
06A
000
006
000
064
764
07C
000
786
0B8
0A6
000
12C
000
000
148
6CE
000
756
000
0C2
7FA
000
712
000
7FC
000
00A
02E
716
706
7FA
162
000
7D8
00C
112
000
7EA
00C
000
19A
028
000
00C
000
000
000
010
7F6
000
000
000
000
000
000
000
000
7C2
000
000
000
000
002
000
000
000
000
000
6AE
000
000
000
032
000
000
000
7F4
006
000
7EA
71C
000
008
000
04A
000
004
7DE
000
000
000
000
078
000
7F6
000
000
740
000
01E
000
000
000
016
01C
7F4
000
000
002
000
0EE
000
000
000
010
09E
062
1AC
7FE
120
000
000
000
058
000
098
000
000
000
000
10C
000
7A2
0C0
7BA
000
000
000
000
7F2
000
000
000
03C
000
000
000
000
000
000
000
0C0
034
104
000
000
000
000
000
7E4
014
000
046
000
020
010
002
7D0
000
7FE
000
192
0E8
7F8
7EE
000
002
7F4
7D0
00E
00A
000
7EA
7DC
7E2
000
006
00C
000
7EE
000
7F4
000
7FE
000
6F2
7D4
00C
008
7C6
714
7CE
000
004
018
000
000
7FE
002
002
624
008
000
000
000
01C
732
018
7EA
000
006
7D4
000
012
720
000
00E
136
002
000
01E
7FE
01C
000
004
000
0C6
044
000
122
7E6
000
000
044
000
006
750
7BE
014
000
000
000
006
706
004
000
000
036
006
072
020
000
000
000
07C
0BE
000
000
7C6
008
008
000
002
7A4
000
000
000
138
000
790
000
05C
044
000
000
7C0
000
7EC
000
0D0
7EA
7FE
000
04E
000
014
000
0A4
08E
000
000
7EA
008
792
000
01C
000
0F6
000
000
000
000
10C
000
0F0
7F2
04C
000
760
71E
000
782
000
000
7A0
000
7E6
024
008
000
000
000
050
000
002
000
000
000
7AE
000
01C
000
000
000
000
000
000
000
000
000
000
72C
00E
07E
088
0CE
7AE
7FA
000
000
000
012
7F8
0F0
000
000
6D2
792
0BA
11E
0FE
094
000
7EE
000
000
7D8
000
000
000
0A4
000
018
000
000
000
7D8
6FE
084
000
7FE
000
000
000
000
002
752
000
00A
000
000
000
000
000
000
05C
000
128
6F6
09C
000
790
006
000
000
6EC
000
000
000
000
000
7EA
7A0
000
000
0AE
7C2
14A
000
000
000
000
000
05C
7FA
112
000
000
000
000
046
000
000
00A
06C
000
000
000
7FC
000
000
7F0
782
000
000
000
000
000
76E
000
000
7CE
000
7E6
000
000
7B4
05A
000
0A8
000
000
000
000
020
000
142
006
00E
7E2
018
000
11E
026
000
000
026
000
788
024
000
000
006
00E
000
002
000
000
000
000
7EE
000
000
028
000
000
000
06A
788
010
000
000
0E2
0C4
75E
0FA
0C8
002
000
000
000
000
012
006
7FC
000
68C
000
000
172
1A8
7F4
000
000
000
000
01C
004
08E
09E
7F8
050
796
7E0
0AE
000
000
000
000
000
000
0C6
000
000
000
000
000
000
000
7FC
000
000
0D2
000
000
000
000
7FE
000
000
000
112
004
7F2
7FC
000
060
7E4
7F8
000
000
000
000
7FE
776
000
000
000
000
074
000
000
000
056
0D2
01C
000
000
0A0
000
7F4
732
000
082
000
000
000
000
00A
000
7DC
000
000
7F6
052
740
000
000
000
092
000
7E8
000
11A
7E6
000
000
01A
000
000
000
000
00C
022
0CC
7EC
0DE
000
000
010
060
000
000
002
06E
000
7F6
6FE
006
7CE
000
000
000
772
000
000
000
074
000
000
050
000
1BE
000
010
000
000
000
000
79A
000
0A0
000
000
000
000
7F6
000
000
7FE
000
000
000
000
000
000
00E
13C
000
000
008
7DA
000
740
7FE
000
0A4
002
000
000
004
7FC
000
000
000
7F8
000
6C2
052
778
000
000
000
0D0
000
098
06C
004
000
002
000
092
000
000
7F6
000
026
000
000
008
000
09E
118
000
0BC
7EC
000
000
76C
000
6F0
000
000
004
000
104
000
012
000
000
000
002
000
000
000
000
000
000
000
000
000
022
000
0F4
7F8
134
016
000
7FC
094
0A8
744
75C
000
000
09A
000
7F2
000
020
670
7D0
7F4
000
000
000
000
02C
028
7F0
6DC
0F0
000
006
012
002
184
09E
000
000
000
0EC
000
098
724
008
000
000
008
008
00A
160
77C
000
028
000
00E
000
000
054
000
000
000
7E0
116
02A
00E
7E0
780
7FC
000
01C
000
000
0C2
014
7FA
78E
000
002
00E
030
000
03A
000
002
0D8
000
7EE
000
000
000
0BC
152
000
09A
000
012
000
7F4
7EE
08A
7C8
0E2
7FE
7FE
7AA
070
7C6
7F4
000
778
000
000
05A
088
008
000
78E
000
000
0BA
002
00A
000
098
766
000
000
006
010
02C
004
102
000
718
77E
004
000
000
7FA
012
000
0B4
73A
052
000
000
632
0FA
000
6E6
010
000
7EE
01C
094
6CA
000
000
09A
00A
000
000
11E
000
7D8
000
102
000
000
7FA
000
000
714
008
000
016
018
000
76C
75C
000
72E
7F6
000
004
000
000
000
000
042
716
7AA
000
000
09A
000
000
000
010
77C
18A
7A4
000
000
000
000
000
000
000
076
000
002
000
00C
000
000
000
000
000
000
7F0
716
000
000
00A
028
002
000
000
760
000
000
000
000
032
000
000
000
020
000
000
000
000
000
000
710
066
7CA
000
000
000
00A
000
000
7A2
000
0D4
000
042
000
000
06C
000
000
058
000
000
006
000
000
0E6
774
13C
7E0
058
000
6A8
000
70A
07C
000
000
000
002
000
00A
000
000
000
000
000
000
09E
000
000
000
000
168
000
00A
7EC
000
7BC
000
7EA
000
078
020
000
7FA
000
000
000
000
000
010
012
000
000
000
122
01C
000
000
000
7F8
000
000
7AC
014
000
000
000
0D6
000
050
000
0D8
014
000
000
000
000
000
000
000
000
000
010
0A8
7D0
000
006
03A
0F6
000
000
000
000
002
00A
7FC
01A
070
000
000
000
752
000
000
710
0E2
000
186
000
756
000
7E8
01C
004
000
0E4
000
704
14A
0FC
7F6
000
000
08C
70E
000
000
000
000
12E
000
138
000
760
010
7F4
000
000
00A
14A
00A
00E
78C
000
0C0
0EA
000
000
000
000
01C
70E
77C
084
7FE
004
000
000
014
022
000
010
008
000
002
114
7F2
00A
000
000
024
0B8
7FE
138
04E
028
000
7E6
000
7BE
108
000
000
10C
000
000
000
000
006
02A
000
02A
000
00A
000
018
000
000
000
79A
77E
00A
042
000
07E
748
000
71E
020
000
000
0C6
7EA
010
000
000
084
000
000
02E
000
000
000
000
000
000
000
000
032
000
000
000
000
000
000
000
000
000
000
000
000
000
000
000
000
000
000
0C2
7AC
000
000
000
000
000
000
000
000
000
000
000
000
000
000
000
000
000
000
000
000
000
000
026
000
000
000
000
000
7BA
000
000
11C
7EE
000
000
000
000
000
000
04C
000
0B0
09E
000
000
000
000
000
000
008
000
000
000
000
00C
000
000
000
000
000
000
000
000
000
000
000
000
000
000
000
082
000
03A
000
78E
000
7FA
012
000
000
000
000
006
020
7B6
004
6A4
0D8
006
7F0
000
006
140
0DA
006
000
7E6
73C
008
7BA
7EA
0A8
000
00E
084
006
000
000
000
06C
7F6
01C
00A
7DE
7F8
7F8
7FE
000
10E
770
0B2
0B2
000
0A0
77E
000
060
12A
000
000
000
0FE
000
7F8
024
000
7FE
02C
66A
000
000
000
7FE
7E8
7EC
044
02C
716
000
000
1B8
7EE
000
7EC
020
000
01E
010
000
00A
734
000
054
048
03E
000
004
7FE
000
7FE
774
000
004
000
004
7C8
000
792
7F8
000
0B0
000
000
726
000
000
000
000
000
002
02A
000
000
000
7DA
7F2
002
0F8
120
120
000
180
7FE
7F0
000
7BC
012
12A
0DC
036
0BA
7D6
024
7FC
000
01C
006
000
000
000
000
000
000
000
078
000
014
00A
000
000
000
000
006
168
0D2
002
03E
764
000
11A
000
002
076
000
014
00E
000
080
000
7EE
6DA
014
0C8
02E
7AC
000
7EC
000
000
088
000
000
7E8
000
01C
000
660
004
000
030
000
000
7B2
000
004
010
00A
796
000
000
000
016
7EA
730
030
022
004
008
000
002
000
000
7E8
000
014
00E
000
000
14A
004
000
000
000
000
000
000
6C2
000
0B8
000
02E
7FE
058
038
000
000
000
00C
7EC
7EC
00E
000
000
00C
714
000
000
00A
7F0
000
000
000
0DE
000
000
094
018
000
004
000
000
000
000
000
000
13A
000
000
04E
000
76C
000
07E
058
000
010
028
000
7F0
000
01C
000
000
6F0
7E4
000
000
000
04C
000
7FC
0E4
000
000
79A
78C
178
052
008
096
096
126
7FE
6B8
000
000
114
748
7EC
138
002
008
7E4
044
000
000
000
000
07C
7F6
000
058
77C
006
0C8
000
000
000
000
000
0D8
000
7A0
012
0FC
7BC
000
7FE
74A
7FC
7AE
000
058
716
000
000
7FA
7F8
000
000
05E
7EA
002
6EA
7F8
000
000
7A0
024
7B6
7F8
014
008
026
000
000
002
0B4
000
09A
000
01E
024
000
7FE
028
020
7F2
7FE
000
136
00C
004
728
000
000
7F4
7B0
000
000
004
01A
798
000
090
02E
016
000
00C
000
000
000
72A
006
000
13C
000
002
014
0EE
7EA
000
792
000
038
08C
7E4
000
008
7A4
7D6
7C6
024
000
002
000
75E
000
000
7F4
080
0B6
7A8
7D2
000
000
00A
004
000
000
7FE
00A
7FE
73E
7FA
000
000
7FC
000
000
000
002
7E2
694
008
002
722
00A
00C
7EA
00C
7FA
034
004
7F4
7E4
006
7F6
000
002
012
7F4
006
000
008
006
7EA
00A
7EE
000
0E8
000
150
7AA
7FC
000
0F4
088
010
7E0
75A
006
000
000
000
02A
000
000
7EC
000
000
000
008
000
000
000
000
000
002
00A
000
000
7EC
000
000
128
116
000
74C
7FE
050
000
000
018
000
000
000
000
000
000
000
022
6E0
000
744
000
000
000
000
000
73E
006
000
152
000
000
000
000
164
000
000
000
7FE
000
7EC
000
004
000
7FE
000
136
000
000
000
000
000
000
000
05C
000
000
000
008
7E2
11A
000
000
000
000
000
000
000
000
014
726
000
01E
000
776
7B0
0E0
7FC
0DA
000
12A
000
000
000
6AA
08E
000
000
67A
12E
000
000
006
000
048
00A
038
7FA
710
000
7C2
000
7DA
006
12E
1B2
7FE
7F8
000
7D4
7C8
7A0
000
092
004
03A
000
000
004
758
066
000
046
000
000
014
000
796
79E
000
71E
000
000
7FE
008
000
000
098
00A
000
012
11A
012
788
000
000
746
000
0D6
000
09A
000
7FC
7FA
000
000
000
144
000
022
7F0
00C
7FA
02E
7F4
000
004
000
004
7D6
08E
000
7FC
0C6
144
000
000
76E
000
000
000
7A0
786
000
000
000
7AC
75C
000
000
000
06C
000
76A
000
7AC
034
7D8
000
000
7E0
000
002
022
008
102
010
026
7D4
6C4
000
002
1A6
016
000
022
002
7D0
002
000
00A
1A2
000
7FC
000
0A2
000
7E4
000
7FC
004
000
014
0AE
750
000
000
000
0E0
02E
000
000
04C
7FE
00C
0D4
000
000
104
000
018
000
000
004
000
7FA
7F8
024
000
238
7DC
000
0D0
000
000
7C0
000
000
7F4
724
026
000
7FC
018
000
038
000
000
000
000
0EA
7DE
000
000
7CE
000
000
000
072
740
000
7DC
000
722
000
08E
01E
000
000
000
6DA
000
000
000
7FE
014
000
008
000
7E8
000
788
036
000
7B4
000
0B8
7FA
764
000
146
010
0C8
108
7E2
0F0
7AA
000
000
7EE
192
000
0B8
6F6
002
000
7FC
7FA
106
1C8
000
7F8
000
000
00E
000
7FC
002
000
000
01C
000
6FC
02A
000
77C
7D6
0B0
696
000
7F0
078
014
000
0BE
000
000
01A
05A
000
7F2
000
000
00A
7F0
0CA
022
7EE
000
000
000
000
000
000
000
000
000
000
000
000
000
000
000
000
000
000
000
000
000
000
000
000
000
000
000
000
000
000
000
000
000
000
000
000
000
000
000
000
000
000
000
000
000
000
000
000
000
000
000
000
000
000
000
000
000
000
000
000
000
000
000
000
000
000
000
000
000
000
000
000
000
000
000
000
000
000
000
000
000
000
000
000
000
000
000
000
000
000
000
000
000
000
000
000
000
000
000
000
000
000
000
004
000
000
0AE
000
6F8
7FE
000
02A
000
136
000
074
004
79C
7EE
002
018
006
018
00A
7E6
7FA
000
7FA
7FA
7F4
002
000
000
002
000
002
000
000
75C
000
000
7FE
760
7FE
7FA
7FE
0A8
094
000
004
000
7FE
73A
000
000
000
7A6
000
000
038
002
7F2
0B2
7B4
000
124
7EE
000
102
7E8
140
776
7E6
7FA
0D2
734
000
01A
030
000
000
000
03A
0BE
000
0FA
7AE
0D6
000
000
000
014
000
000
03E
0C0
004
7FE
000
0B8
000
000
000
000
000
000
000
000
042
000
000
008
7EE
000
000
000
000
000
000
000
000
000
000
032
000
000
6BA
000
096
000
000
000
000
0C2
022
000
6B6
000
000
000
000
088
000
000
000
000
000
000
15C
0BE
000
000
112
000
000
000
098
000
000
000
25E
000
000
000
7E6
000
000
000
000
7FE
000
000
000
000
000
062
000
000
04E
000
7E8
000
000
000
02A
000
000
000
000
18C
000
000
000
000
000
000
7F6
000
03E
0E4
000
000
68A
7F6
6F0
000
000
000
000
0B0
022
76E
7E2
000
000
760
7E2
00C
118
000
004
7FE
794
656
000
000
784
786
036
124
7FC
0C2
7F2
024
002
020
000
130
000
000
000
7F4
000
000
000
7E0
000
000
000
734
0EC
002
000
000
7FE
000
000
000
004
0E6
00E
000
000
000
11A
000
000
030
000
0AE
7C2
000
000
02A
002
758
7F8
7FE
000
000
008
006
704
7FA
00E
000
002
09C
7FE
000
77C
76E
0D2
000
7EE
6F6
7F0
126
000
000
000
000
05A
000
000
000
000
000
000
000
7C6
016
7AA
0EC
000
068
000
0D6
000
000
7F2
000
000
000
000
000
002
000
000
000
000
000
000
076
000
000
000
048
006
77C
000
000
000
000
7DC
024
000
026
11E
000
000
014
7EE
000
000
000
000
000
000
02A
018
000
000
000
00C
000
000
7FE
000
000
000
000
000
000
000
000
000
03A
000
010
7FE
000
000
000
000
15A
7E4
03C
000
020
05C
7FA
000
000
000
000
000
000
000
13A
000
000
000
000
000
000
000
000
000
000
000
000
000
000
7CC
000
000
772
000
000
07C
000
000
0DC
000
000
000
1A4
000
000
7F2
000
08A
000
00C
000
000
000
7EE
7E4
148
000
7AE
000
004
000
000
7BA
000
000
000
7F6
7B0
042
000
004
0AC
000
018
7E8
008
000
000
008
7F4
000
000
03E
000
7FE
7FC
000
760
7FE
0E4
000
000
7A8
000
00C
000
000
000
000
000
7EA
000
000
000
000
000
0BA
000
000
7FE
0FE
000
000
7F8
7C2
000
000
000
000
000
000
7EA
000
000
000
024
0E8
000
000
762
000
000
01E
000
000
7FE
01A
000
014
002
000
7FE
000
1D8
000
000
000
000
000
000
000
7FC
000
000
008
794
000
7E6
000
000
78C
000
000
75A
000
000
08E
088
000
000
000
034
000
000
000
000
000
02E
000
7FE
7D6
000
72C
124
04E
000
000
000
000
010
000
02C
000
000
000
002
000
000
000
000
000
7FA
028
000
002
000
000
000
000
000
000
790
74C
01A
000
0BA
000
7F8
022
000
000
000
000
000
0F8
000
000
016
000
0E2
002
000
002
7DA
000
000
7E0
000
7EA
000
000
000
718
000
000
000
020
7BE
054
7F6
000
000
7D4
012
000
000
012
000
000
000
7DC
000
7A6
770
000
078
10C
0A4
000
7E6
000
000
000
000
0BE
000
000
7E2
000
000
000
000
000
000
074
000
000
07C
002
000
006
000
004
7B4
000
000
6B4
01A
7E2
0B4
036
0C6
7FA
09C
000
07C
7F6
6DE
028
02E
750
000
000
0AA
01C
02C
000
790
000
090
000
000
000
094
000
000
74C
000
71C
01C
000
7EE
000
06C
006
7E6
7FE
7FE
09A
142
014
000
000
010
050
780
002
000
000
00A
000
000
000
006
000
004
15A
000
008
010
7FC
7FA
740
7FC
000
000
000
0C0
000
000
000
000
000
004
7E8
000
000
77C
000
000
7FC
15C
000
006
000
7EE
000
024
0D0
7FC
0E4
000
736
7D8
0B6
024
000
000
7A8
004
722
060
04E
002
000
000
7E4
7C8
000
000
008
000
004
00A
002
000
000
7FE
238
008
104
0D0
000
00A
0DC
000
000
11C
72E
016
006
000
000
7E0
162
000
02A
000
000
000
768
7A0
000
000
000
1E0
040
000
00C
000
000
000
6B8
7EE
08A
000
000
008
000
096
032
000
000
106
0F8
000
0E2
000
000
7F8
000
112
000
00E
7F6
00A
000
7F2
006
770
0AC
736
000
67C
000
7D6
7B6
7A0
000
000
018
000
000
008
000
000
796
000
000
0C8
000
15A
000
000
11E
052
050
000
07E
000
778
000
000
7EC
006
000
000
764
14A
000
000
000
0CA
000
0B4
012
000
000
00A
000
096
000
000
7CE
0E8
7B0
000
000
002
00A
05A
000
7E6
006
000
000
130
000
0DE
000
000
000
7E6
000
172
000
110
7F0
000
000
7E4
7FE
7EC
6CA
000
79E
118
000
000
7F4
78A
02C
000
002
000
7F0
000
7E4
000
000
7F2
78E
000
01A
000
000
000
000
000
008
000
082
7F6
000
088
1C0
76E
162
008
002
000
000
7FE
000
000
086
000
694
000
104
000
000
738
102
000
024
000
00C
020
74E
000
73C
04E
0A4
000
000
016
7F0
000
768
000
02C
00E
028
000
752
08C
000
000
000
002
000
018
000
000
7DA
000
000
000
000
000
000
186
000
000
040
000
000
000
000
000
000
000
7CA
000
000
000
000
000
006
000
0FC
000
000
000
090
000
048
000
000
7E0
000
71E
002
000
000
000
000
000
000
000
792
7F2
000
0E8
0DA
014
7EE
000
7FE
112
7EC
0FE
000
000
00E
7D2
006
000
7D2
000
0A2
7FE
000
000
000
000
000
000
000
088
7CC
000
044
000
000
000
0E0
7FE
002
000
052
000
000
000
048
0A8
046
000
000
000
000
008
000
000
000
000
000
004
000
7A8
000
000
000
000
000
000
08C
000
000
0D6
000
000
000
000
000
000
000
000
000
000
00E
000
004
7DC
052
000
000
0E6
760
000
000
000
000
772
000
000
000
76E
000
008
000
7E0
000
000
04C
000
000
000
000
000
03A
000
000
03C
000
000
000
000
000
000
000
000
000
000
000
000
000
020
004
000
000
000
000
012
658
000
000
000
0D8
000
000
13A
000
000
7CC
000
000
00A
000
060
000
004
0AE
75A
000
00A
000
10E
000
000
000
042
000
7F4
000
018
0AE
004
0D2
000
7E4
016
004
000
000
000
000
000
0AE
034
006
000
000
7D2
0CC
000
7DA
018
000
754
19E
000
000
000
000
004
000
000
7C4
000
000
000
000
032
000
000
7FC
006
124
768
000
000
1A0
004
7F4
7EC
7C4
000
000
006
000
000
762
0EC
000
000
000
7FA
000
040
01E
000
7EE
000
002
02E
000
000
7D8
0BA
000
000
000
000
126
000
000
000
000
000
000
000
016
00E
7D8
000
000
026
000
000
000
010
000
7F2
14E
000
000
000
792
000
000
770
090
000
000
004
778
000
058
0E8
000
000
002
000
09C
000
054
05A
064
000
7FE
00A
000
000
744
000
000
008
000
000
000
762
000
05C
000
000
7F6
7AE
008
000
7CE
008
000
000
7F8
000
000
000
732
000
000
000
000
000
000
000
000
000
000
000
048
000
000
000
000
000
000
000
000
000
000
09C
000
000
000
000
000
000
000
000
000
000
000
000
000
000
000
000
000
000
000
000
000
000
000
000
000
000
000
000
000
000
000
000
000
000
000
000
000
000
000
000
000
000
7A4
000
000
000
000
000
000
000
000
000
000
000
000
000
000
000
7E4
008
000
000
000
000
000
000
000
000
000
000
000
000
000
000
000
000
000
000
000
000
000
000
000
000
0A2
7F6
7F6
000
7E6
000
000
000
000
000
000
748
00C
000
000
000
00E
000
002
096
6DC
000
018
002
000
004
01A
010
7FA
000
000
000
002
004
000
128
000
000
000
000
000
000
000
000
0A0
132
030
74C
000
140
000
000
000
07C
004
000
000
000
07E
028
000
000
008
000
000
000
000
002
7FE
000
018
006
7EA
01E
000
006
000
01A
000
000
000
7FE
000
000
000
000
000
78A
7EA
000
000
000
7F4
000
7FE
000
01A
000
000
000
014
09E
000
07C
000
02C
000
0FA
000
132
000
000
000
000
050
10E
7AA
0BC
6F8
000
008
000
07C
000
000
000
006
000
00A
000
000
040
000
000
000
000
000
000
000
000
7FC
000
7EC
000
000
116
000
08E
048
01C
7FC
000
000
000
004
000
000
012
000
000
000
000
000
000
000
7F0
000
000
7FE
000
000
76C
000
000
000
038
000
000
7FE
000
0EC
000
000
12E
000
000
000
084
000
000
768
000
000
000
000
000
000
0A0
77C
000
7F2
07E
00A
000
0EC
000
000
07E
000
000
116
000
020
7F4
000
000
6EE
000
000
000
000
000
7F0
7DA
7A6
000
684
7F6
108
096
120
000
000
0C8
004
704
000
018
7FE
760
0CE
03E
000
00A
000
000
7F4
000
000
7EA
108
760
7AA
774
000
000
05A
786
000
000
000
000
000
01E
002
004
000
000
034
000
066
000
00E
000
0DE
00E
000
7FA
000
7F0
022
7C2
000
7F8
0A2
7B0
000
000
000
028
004
000
13E
000
00A
000
000
000
062
000
04C
000
7C0
000
024
000
730
000
000
000
000
190
0BC
00C
722
05A
000
000
000
000
006
000
000
000
014
716
000
000
7A2
070
762
0AA
000
000
000
086
008
000
004
0FA
078
000
000
7D2
000
000
796
000
000
030
73E
000
000
00E
000
000
004
14E
000
0A4
01A
000
00A
01E
000
012
002
084
000
000
084
01E
000
002
000
004
010
000
0A8
09A
0E6
000
104
000
000
000
000
6C4
000
000
000
000
000
036
14A
03C
000
11C
000
000
000
01C
000
000
74E
000
004
00A
73E
010
7CA
026
000
002
032
10A
7E0
000
000
008
1B8
022
000
7FC
000
000
09E
712
116
09C
008
7F6
758
70A
000
7DE
094
10C
70A
7EA
000
000
000
7DC
000
004
7CC
0DC
7FE
010
7F8
088
000
7FC
10E
02C
72A
014
000
7CE
002
000
712
00A
73E
7E2
014
7FE
000
0AE
786
000
7A4
000
002
776
124
000
0C0
7FE
146
012
778
13E
7EC
0DA
126
0EE
18A
002
784
000
022
770
078
6BA
000
07E
000

