79E
008
7F4
000
010
000
79E
000
640
01E
000
010
016
016
000
000
020
000
02A
006
000
000
000
122
7FC
000
000
018
686
000
000
000
7F8
012
5CC
12C
000
0F6
602
000
004
6B2
000
000
000
000
01A
028
000
00C
7E2
014
018
10E
7D2
02E
6BA
006
69E
02A
002
038
000
7FC
5C0
01E
000
014
000
7F2
022
02E
006
7B6
666
000
6B6
03C
7DC
000
7FE
00C
26C
008
00A
002
000
04A
7E8
7E8
018
7F4
000
13E
000
022
7EC
646
00E
598
7FA
000
7D4
67C
620
000
000
000
000
000
000
68C
61A
7FA
7F4
000
7FA
000
0F6
5CE
646
79C
000
000
018
7F6
000
000
004
000
000
000
000
7FA
7D8
7F8
000
7FA
1D6
000
4FA
000
692
000
000
146
6F0
000
000
000
000
000
000
7E8
000
626
000
1F2
000
7DC
7DE
002
7EE
000
132
000
000
00A
000
000
5CC
7FA
000
000
000
000
0A6
1EC
10C
000
140
000
000
000
000
000
000
000
612
692
7AA
7FA
006
7E0
000
000
7FE
000
00C
5EC
648
00A
000
004
000
6A0
006
7FC
000
000
656
160
00C
196
000
03A
126
000
032
000
7F2
7DE
006
01A
000
008
000
030
7F8
000
7FE
600
648
008
012
66E
000
6D0
00E
028
000
000
000
000
6EA
6BC
750
7BE
000
000
000
044
000
004
7E0
104
1F4
708
64C
000
004
000
000
68A
150
7DA
7F8
026
00E
000
0EA
00A
5FE
5CE
7C0
7EC
002
014
104
000
7FC
000
5F8
7F8
00C
7EE
63C
630
000
590
000
00A
6F0
00A
000
02A
7F6
000
624
7EA
1FC
000
000
000
7DE
008
000
006
000
664
000
002
01A
7F6
000
7FA
000
000
7C8
01A
000
5D4
000
60C
000
636
000
0F2
028
000
014
000
000
01C
05A
002
000
7FC
604
010
01A
000
000
000
194
7FE
7E2
7F8
000
61C
000
014
000
7FC
7F6
7C8
024
7DE
000
7F0
01C
5CC
7FC
000
000
7C4
000
00C
65E
000
7FE
5C6
7FE
002
000
152
646
5F0
000
000
000
000
7DA
000
614
000
13A
000
18C
026
63A
000
000
7D6
032
000
0E6
03C
000
020
016
676
7FE
7EC
152
000
7F6
000
01A
134
012
7E4
69A
7EE
000
5F8
7F8
000
028
002
000
7EE
7F6
644
7FE
7FC
000
006
020
000
000
020
034
676
6AE
6E8
000
00E
646
000
000
018
006
000
024
014
000
582
000
000
7FC
7FC
7FE
7F2
174
000
670
6B0
000
6AE
692
004
7FC
000
000
196
000
70C
00C
7FE
626
024
022
1F2
018
7E4
01A
010
118
000
636
00C
036
004
7F8
7F8
7FE
06A
7FE
6B2
004
000
132
7D6
000
000
006
000
650
000
00C
788
000
7FA
000
002
000
000
000
006
000
7FE
016
000
000
124
0C4
000
17A
000
000
000
000
7C2
084
012
000
674
000
7EA
1A8
5A8
000
130
002
5E8
000
000
012
000
000
000
000
000
68E
000
000
000
000
5DC
16E
7E4
644
022
000
002
000
000
000
60E
5F4
7E6
000
1C8
004
666
284
65A
174
12C
000
00E
002
000
014
002
000
000
514
000
038
594
00E
002
636
018
002
7DE
514
000
002
5B6
5FC
7E6
0C2
000
002
7D4
01C
006
02E
012
112
000
678
000
690
000
656
000
034
7FE
7E6
7E0
000
688
650
000
558
000
00C
18E
004
16A
016
170
000
5EC
008
000
000
028
02E
7F6
032
17C
000
00C
7E6
7E2
006
000
7FE
000
000
000
000
678
000
7EA
000
69C
7F4
006
00A
7FC
00E
000
216
00C
004
7F8
134
004
7FA
7CA
008
6CE
7FC
000
0F0
680
000
000
19A
7E8
004
6D2
6E6
000
12C
000
5E6
016
00E
000
7F4
620
006
008
008
004
000
000
000
6B4
010
004
010
1A6
004
000
000
0E0
014
18E
000
002
0EA
642
7FA
000
000
56A
000
002
640
000
012
0BA
000
696
66A
7D2
5E6
634
000
01E
01C
000
012
100
7FA
004
008
000
000
7F0
0FE
000
000
016
000
000
000
000
000
000
000
110
000
058
002
59A
7E8
7BC
640
000
7E0
6F8
116
00A
7DC
7DC
000
102
778
01E
7FC
000
000
00A
000
010
77C
646
6D4
000
7C8
000
7BE
62E
000
5F0
000
6BA
000
02A
01A
000
650
000
70A
000
000
5F2
5CC
18A
000
668
7BE
16E
7FA
000
122
000
000
7FA
17C
7FC
000
61C
000
7F2
000
632
000
000
00E
5D2
000
026
000
7F4
000
4F2
000
6A8
63E
000
6A0
00E
000
7D6
7F2
564
000
7D8
000
644
000
000
000
000
000
000
6AC
1F2
000
012
000
7F0
000
7F8
7FC
7CA
000
000
796
00A
01C
002
7C6
7DA
7C6
000
000
000
0B8
000
7F0
69E
5D8
000
000
27A
58A
63A
000
000
7EA
006
000
672
000
1C8
004
02C
004
1AE
000
000
000
7F4
000
7F0
002
00C
684
18C
62A
67C
000
000
7F8
5AC
000
696
000
624
004
000
00C
000
000
0F0
186
000
4F4
000
000
004
000
006
4D8
006
000
00E
7EC
000
5CC
018
000
7FA
004
7F0
000
00E
7FC
002
000
622
000
000
000
000
018
012
000
14A
000
63E
022
000
6E4
00C
000
000
000
004
008
010
7D2
002
000
012
7E8
564
610
000
5FA
000
012
7F4
000
024
1A0
000
000
000
7BA
65C
000
000
000
008
000
000
002
010
038
002
00E
010
000
008
00C
7EC
000
010

